{
  "version": "1.0",
  "truncation": null,
  "padding": null,
  "added_tokens": [
    {
      "id": 0,
      "content": "[UNK]",
      "single_word": false,
      "lstrip": false,
      "rstrip": false,
      "normalized": false,
      "special": true
    },
    {
      "id": 1,
      "content": "[PAD]",
      "single_word": false,
      "lstrip": false,
      "rstrip": false,
      "normalized": false,
      "special": true
    },
    {
      "id": 2,
      "content": "[CLS]",
      "single_word": false,
      "lstrip": false,
      "rstrip": false,
      "normalized": false,
      "special": true
    },
    {
      "id": 3,
      "content": "[SEP]",
      "single_word": false,
      "lstrip": false,
      "rstrip": false,
      "normalized": false,
      "special": true
    },
    {
      "id": 4,
      "content": "[MASK]",
      "single_word": false,
      "lstrip": false,
      "rstrip": false,
      "normalized": false,
      "special": true
    }
  ],
  "normalizer": {
    "type": "Sequence",
    "normalizers": [
      {
        "type": "NFD"
      },
      {
        "type": "Lowercase"
      },
      {
        "type": "StripAccents"
      }
    ]
  },
  "pre_tokenizer": {
    "type": "BertPreTokenizer"
  },
  "post_processor": {
    "type": "TemplateProcessing",
    "single": [
      {
        "SpecialToken": {
          "id": "[CLS]",
          "type_id": 0
        }
      },
      {
        "Sequence": {
          "id": "A",
          "type_id": 0
        }
      },
      {
        "SpecialToken": {
          "id": "[SEP]",
          "type_id": 0
        }
      }
    ],
    "pair": [
      {
        "SpecialToken": {
          "id": "[CLS]",
          "type_id": 0
        }
      },
      {
        "Sequence": {
          "id": "A",
          "type_id": 0
        }
      },
      {
        "SpecialToken": {
          "id": "[SEP]",
          "type_id": 0
        }
      },
      {
        "Sequence": {
          "id": "B",
          "type_id": 1
        }
      },
      {
        "SpecialToken": {
          "id": "[SEP]",
          "type_id": 1
        }
      }
    ],
    "special_tokens": {
      "[CLS]": {
        "id": "[CLS]",
        "ids": [
          2
        ],
        "tokens": [
          "[CLS]"
        ]
      },
      "[SEP]": {
        "id": "[SEP]",
        "ids": [
          3
        ],
        "tokens": [
          "[SEP]"
        ]
      }
    }
  },
  "decoder": {
    "type": "WordPiece",
    "prefix": "##",
    "cleanup": true
  },
  "model": {
    "type": "WordPiece",
    "unk_token": "[UNK]",
    "continuing_subword_prefix": "##",
    "max_input_chars_per_word": 100,
    "vocab": {
      "[UNK]": 0,
      "[PAD]": 1,
      "[CLS]": 2,
      "[SEP]": 3,
      "[MASK]": 4,
      "!": 5,
      "\"": 6,
      "#": 7,
      "$": 8,
      "%": 9,
      "&": 10,
      "'": 11,
      "(": 12,
      ")": 13,
      "*": 14,
      "+": 15,
      ",": 16,
      "-": 17,
      ".": 18,
      "/": 19,
      "0": 20,
      "1": 21,
      "2": 22,
      "3": 23,
      "4": 24,
      "5": 25,
      "6": 26,
      "7": 27,
      "8": 28,
      "9": 29,
      ":": 30,
      ";": 31,
      "<": 32,
      "=": 33,
      ">": 34,
      "?": 35,
      "@": 36,
      "[": 37,
      "]": 38,
      "_": 39,
      "a": 40,
      "b": 41,
      "c": 42,
      "d": 43,
      "e": 44,
      "f": 45,
      "g": 46,
      "h": 47,
      "i": 48,
      "j": 49,
      "k": 50,
      "l": 51,
      "m": 52,
      "n": 53,
      "o": 54,
      "p": 55,
      "q": 56,
      "r": 57,
      "s": 58,
      "t": 59,
      "u": 60,
      "v": 61,
      "w": 62,
      "x": 63,
      "y": 64,
      "z": 65,
      "®": 66,
      "°": 67,
      "µ": 68,
      "·": 69,
      "¼": 70,
      "–": 71,
      "’": 72,
      "“": 73,
      "”": 74,
      "##i": 75,
      "##t": 76,
      "##e": 77,
      "##d": 78,
      "##o": 79,
      "##l": 80,
      "##s": 81,
      "##p": 82,
      "##n": 83,
      "##b": 84,
      "##u": 85,
      "##r": 86,
      "##a": 87,
      "##c": 88,
      "##m": 89,
      "##g": 90,
      "##k": 91,
      "##y": 92,
      "##j": 93,
      "##v": 94,
      "##h": 95,
      "##f": 96,
      "##z": 97,
      "##w": 98,
      "##7": 99,
      "##1": 100,
      "##4": 101,
      "##5": 102,
      "##x": 103,
      "##q": 104,
      "##2": 105,
      "##0": 106,
      "##6": 107,
      "##9": 108,
      "##8": 109,
      "##3": 110,
      "##°": 111,
      "##®": 112,
      "##he": 113,
      "the": 114,
      "##er": 115,
      "##ed": 116,
      "##ti": 117,
      "##on": 118,
      "##as": 119,
      "##al": 120,
      "##en": 121,
      "##in": 122,
      "an": 123,
      "##re": 124,
      "##or": 125,
      "was": 126,
      "##is": 127,
      "and": 128,
      "in": 129,
      "##at": 130,
      "##it": 131,
      "##ati": 132,
      "##ar": 133,
      "##ro": 134,
      "##es": 135,
      "of": 136,
      "to": 137,
      "##ent": 138,
      "##ic": 139,
      "##le": 140,
      "##os": 141,
      "##ing": 142,
      "##ac": 143,
      "##an": 144,
      "##ith": 145,
      "with": 146,
      "##ter": 147,
      "##om": 148,
      "##ec": 149,
      "th": 150,
      "##ou": 151,
      "##el": 152,
      "##ig": 153,
      "##tion": 154,
      "##ve": 155,
      "##ation": 156,
      "re": 157,
      "##ul": 158,
      "##id": 159,
      "##ly": 160,
      "##ure": 161,
      "no": 162,
      "##ad": 163,
      "##ur": 164,
      "##op": 165,
      "pro": 166,
      "##il": 167,
      "##us": 168,
      "##ion": 169,
      "##atient": 170,
      "patient": 171,
      "he": 172,
      "##ia": 173,
      "##ere": 174,
      "##tr": 175,
      "##ut": 176,
      "##ht": 177,
      "is": 178,
      "##ain": 179,
      "##ol": 180,
      "##pp": 181,
      "##ted": 182,
      "were": 183,
      "##ow": 184,
      "##im": 185,
      "ex": 186,
      "##nd": 187,
      "on": 188,
      "le": 189,
      "##ight": 190,
      "##ated": 191,
      "pl": 192,
      "##am": 193,
      "##orm": 194,
      "dis": 195,
      "##ft": 196,
      "at": 197,
      "##um": 198,
      "then": 199,
      "st": 200,
      "for": 201,
      "as": 202,
      "con": 203,
      "pre": 204,
      "be": 205,
      "this": 206,
      "##em": 207,
      "su": 208,
      "pos": 209,
      "##ot": 210,
      "al": 211,
      "##ced": 212,
      "##ver": 213,
      "she": 214,
      "right": 215,
      "left": 216,
      "##ap": 217,
      "us": 218,
      "##teri": 219,
      "##st": 220,
      "plac": 221,
      "##od": 222,
      "##erati": 223,
      "##oc": 224,
      "app": 225,
      "##eral": 226,
      "##the": 227,
      "per": 228,
      "##ble": 229,
      "##et": 230,
      "##ch": 231,
      "##ss": 232,
      "##ell": 233,
      "##ri": 234,
      "##ng": 235,
      "##cedure": 236,
      "procedure": 237,
      "com": 238,
      "ne": 239,
      "there": 240,
      "##ine": 241,
      "##ce": 242,
      "##ir": 243,
      "his": 244,
      "##ate": 245,
      "##ge": 246,
      "##tic": 247,
      "or": 248,
      "##ous": 249,
      "inc": 250,
      "we": 251,
      "ab": 252,
      "placed": 253,
      "sp": 254,
      "de": 255,
      "##ial": 256,
      "##ess": 257,
      "##ay": 258,
      "wh": 259,
      "##rom": 260,
      "se": 261,
      "cl": 262,
      "##th": 263,
      "##rou": 264,
      "bl": 265,
      "comp": 266,
      "##erative": 267,
      "int": 268,
      "her": 269,
      "op": 270,
      "##one": 271,
      "##ak": 272,
      "ad": 273,
      "##ormal": 274,
      "dr": 275,
      "##ition": 276,
      "##ory": 277,
      "##ical": 278,
      "##uc": 279,
      "##qu": 280,
      "ar": 281,
      "that": 282,
      "##end": 283,
      "are": 284,
      "dia": 285,
      "##ary": 286,
      "sh": 287,
      "##all": 288,
      "##mo": 289,
      "##ved": 290,
      "##ear": 291,
      "##form": 292,
      "tr": 293,
      "##osis": 294,
      "##ular": 295,
      "##tal": 296,
      "##if": 297,
      "##un": 298,
      "##ateral": 299,
      "##ast": 300,
      "sc": 301,
      "##roug": 302,
      "##iz": 303,
      "##gn": 304,
      "has": 305,
      "##able": 306,
      "##mp": 307,
      "normal": 308,
      "rec": 309,
      "##ld": 310,
      "##ill": 311,
      "ch": 312,
      "well": 313,
      "##ment": 314,
      "car": 315,
      "##ision": 316,
      "had": 317,
      "##terior": 318,
      "it": 319,
      "##xim": 320,
      "##ication": 321,
      "##se": 322,
      "##operative": 323,
      "##ress": 324,
      "##esthe": 325,
      "##ely": 326,
      "from": 327,
      "##ood": 328,
      "##act": 329,
      "med": 330,
      "anesthe": 331,
      "##og": 332,
      "##out": 333,
      "diagn": 334,
      "##yl": 335,
      "##ied": 336,
      "sub": 337,
      "##iti": 338,
      "##ect": 339,
      "##ag": 340,
      "ob": 341,
      "##ity": 342,
      "all": 343,
      "##formed": 344,
      "##ound": 345,
      "af": 346,
      "##ant": 347,
      "remo": 348,
      "##hy": 349,
      "not": 350,
      "res": 351,
      "##ection": 352,
      "##inal": 353,
      "fas": 354,
      "ac": 355,
      "ca": 356,
      "inf": 357,
      "##ip": 358,
      "ins": 359,
      "##ual": 360,
      "##ich": 361,
      "##ade": 362,
      "fl": 363,
      "##sia": 364,
      "##omy": 365,
      "cor": 366,
      "##rough": 367,
      "which": 368,
      "##cop": 369,
      "##ign": 370,
      "##tery": 371,
      "through": 372,
      "using": 373,
      "##ase": 374,
      "inter": 375,
      "ext": 376,
      "after": 377,
      "hist": 378,
      "##ue": 379,
      "incision": 380,
      "into": 381,
      "anesthesia": 382,
      "sur": 383,
      "##per": 384,
      "history": 385,
      "##ding": 386,
      "un": 387,
      "ev": 388,
      "##ome": 389,
      "und": 390,
      "post": 391,
      "performed": 392,
      "sy": 393,
      "##kin": 394,
      "##ications": 395,
      "##ub": 396,
      "##ide": 397,
      "##enti": 398,
      "by": 399,
      "ha": 400,
      "##vi": 401,
      "##oll": 402,
      "##iss": 403,
      "tak": 404,
      "clos": 405,
      "##ens": 406,
      "appro": 407,
      "ro": 408,
      "hem": 409,
      "under": 410,
      "tim": 411,
      "sut": 412,
      "##ct": 413,
      "##ained": 414,
      "##ans": 415,
      "used": 416,
      "cons": 417,
      "##ne": 418,
      "##ass": 419,
      "##iv": 420,
      "end": 421,
      "removed": 422,
      "fr": 423,
      "pain": 424,
      "##ort": 425,
      "##int": 426,
      "noted": 427,
      "##der": 428,
      "##ib": 429,
      "##ost": 430,
      "skin": 431,
      "##oscop": 432,
      "suture": 433,
      "##rem": 434,
      "##ire": 435,
      "##ack": 436,
      "exam": 437,
      "en": 438,
      "diagnosis": 439,
      "##ected": 440,
      "position": 441,
      "##ther": 442,
      "gen": 443,
      "ver": 444,
      "##ab": 445,
      "up": 446,
      "sign": 447,
      "room": 448,
      "time": 449,
      "trans": 450,
      "##ond": 451,
      "br": 452,
      "##ies": 453,
      "##ould": 454,
      "mo": 455,
      "mm": 456,
      "10": 457,
      "foll": 458,
      "##ite": 459,
      "disc": 460,
      "##ard": 461,
      "taken": 462,
      "##ryl": 463,
      "follow": 464,
      "##oint": 465,
      "##art": 466,
      "artery": 467,
      "anterior": 468,
      "over": 469,
      "pres": 470,
      "##ph": 471,
      "year": 472,
      "##and": 473,
      "surg": 474,
      "have": 475,
      "##ult": 476,
      "##ting": 477,
      "any": 478,
      "##so": 479,
      "##ately": 480,
      "lateral": 481,
      "##fic": 482,
      "diss": 483,
      "but": 484,
      "##athe": 485,
      "out": 486,
      "steri": 487,
      "##pl": 488,
      "obt": 489,
      "general": 490,
      "imp": 491,
      "##ors": 492,
      "abd": 493,
      "##ong": 494,
      "##age": 495,
      "also": 496,
      "compl": 497,
      "##dition": 498,
      "##own": 499,
      "##ud": 500,
      "without": 501,
      "##ral": 502,
      "blood": 503,
      "##ence": 504,
      "##ys": 505,
      "##hion": 506,
      "need": 507,
      "fashion": 508,
      "##urn": 509,
      "ele": 510,
      "##lex": 511,
      "##ital": 512,
      "tiss": 513,
      "vic": 514,
      "##ane": 515,
      "##pped": 516,
      "##tin": 517,
      "gr": 518,
      "low": 519,
      "abdom": 520,
      "##up": 521,
      "closed": 522,
      "##ache": 523,
      "bil": 524,
      "##ist": 525,
      "che": 526,
      "##ness": 527,
      "some": 528,
      "ind": 529,
      "sec": 530,
      "will": 531,
      "str": 532,
      "##ction": 533,
      "distal": 534,
      "ag": 535,
      "vicryl": 536,
      "##ally": 537,
      "can": 538,
      "hy": 539,
      "##te": 540,
      "made": 541,
      "##iqu": 542,
      "postoperative": 543,
      "es": 544,
      "##ath": 545,
      "been": 546,
      "##our": 547,
      "##vel": 548,
      "fem": 549,
      "##onary": 550,
      "##ks": 551,
      "cathe": 552,
      "##ep": 553,
      "bilateral": 554,
      "posterior": 555,
      "sterile": 556,
      "approxim": 557,
      "##ement": 558,
      "preoperative": 559,
      "down": 560,
      "##erating": 561,
      "subc": 562,
      "id": 563,
      "rep": 564,
      "##oth": 565,
      "att": 566,
      "old": 567,
      "area": 568,
      "par": 569,
      "##usc": 570,
      "whe": 571,
      "fo": 572,
      "des": 573,
      "##til": 574,
      "operating": 575,
      "##oid": 576,
      "min": 577,
      "tw": 578,
      "##ach": 579,
      "appear": 580,
      "mar": 581,
      "vis": 582,
      "##ff": 583,
      "so": 584,
      "proxim": 585,
      "identi": 586,
      "mid": 587,
      "##ior": 588,
      "identif": 589,
      "##ace": 590,
      "##ler": 591,
      "##ree": 592,
      "##ons": 593,
      "pul": 594,
      "##ail": 595,
      "cm": 596,
      "##adder": 597,
      "present": 598,
      "obtained": 599,
      "col": 600,
      "cle": 601,
      "ir": 602,
      "##ric": 603,
      "##ized": 604,
      "drap": 605,
      "care": 606,
      "##oun": 607,
      "##ang": 608,
      "do": 609,
      "fin": 610,
      "reg": 611,
      "##ild": 612,
      "##oral": 613,
      "back": 614,
      "lig": 615,
      "mon": 616,
      "extrem": 617,
      "intr": 618,
      "catheter": 619,
      "##00": 620,
      "tissue": 621,
      "##ression": 622,
      "##rap": 623,
      "##ob": 624,
      "##erv": 625,
      "dec": 626,
      "met": 627,
      "prepped": 628,
      "##pper": 629,
      "sm": 630,
      "giv": 631,
      "##ative": 632,
      "upper": 633,
      "##over": 634,
      "##nal": 635,
      "musc": 636,
      "##ix": 637,
      "##ive": 638,
      "draped": 639,
      "##olog": 640,
      "##ination": 641,
      "lower": 642,
      "dif": 643,
      "##ie": 644,
      "finding": 645,
      "two": 646,
      "##aneous": 647,
      "tub": 648,
      "##iop": 649,
      "##ene": 650,
      "small": 651,
      "asp": 652,
      "wound": 653,
      "show": 654,
      "condition": 655,
      "tend": 656,
      "exc": 657,
      "##ily": 658,
      "head": 659,
      "##fer": 660,
      "##ale": 661,
      "##ased": 662,
      "##oss": 663,
      "medial": 664,
      "good": 665,
      "inj": 666,
      "evid": 667,
      "##ning": 668,
      "im": 669,
      "identified": 670,
      "approximately": 671,
      "given": 672,
      "diagnos": 673,
      "##ific": 674,
      "##ention": 675,
      "mass": 676,
      "findings": 677,
      "flu": 678,
      "fasc": 679,
      "side": 680,
      "ris": 681,
      "inser": 682,
      "complications": 683,
      "##its": 684,
      "me": 685,
      "qu": 686,
      "##asis": 687,
      "hemost": 688,
      "loc": 689,
      "ret": 690,
      "##aine": 691,
      "chest": 692,
      "both": 693,
      "irr": 694,
      "##ery": 695,
      "##tive": 696,
      "mild": 697,
      "desc": 698,
      "##uction": 699,
      "sup": 700,
      "evidence": 701,
      "proximal": 702,
      "day": 703,
      "comple": 704,
      "nec": 705,
      "stable": 706,
      "second": 707,
      "visual": 708,
      "les": 709,
      "mg": 710,
      "lesion": 711,
      "dise": 712,
      "##use": 713,
      "press": 714,
      "##ently": 715,
      "##usion": 716,
      "##oph": 717,
      "who": 718,
      "ep": 719,
      "##eration": 720,
      "signific": 721,
      "irrig": 722,
      "rad": 723,
      "appl": 724,
      "##sed": 725,
      "ble": 726,
      "##ount": 727,
      "one": 728,
      "significant": 729,
      "toler": 730,
      "##arge": 731,
      "pressure": 732,
      "##utaneous": 733,
      "nex": 734,
      "dissection": 735,
      "disease": 736,
      "##ities": 737,
      "##red": 738,
      "broug": 739,
      "brought": 740,
      "fe": 741,
      "##roc": 742,
      "##ectomy": 743,
      "##rol": 744,
      "##veal": 745,
      "level": 746,
      "other": 747,
      "did": 748,
      "clear": 749,
      "loss": 750,
      "##eding": 751,
      "reveal": 752,
      "##tim": 753,
      "seen": 754,
      "##ple": 755,
      "##vie": 756,
      "##oscopy": 757,
      "##min": 758,
      "##ra": 759,
      "##erve": 760,
      "surgery": 761,
      "next": 762,
      "##au": 763,
      "bladder": 764,
      "super": 765,
      "open": 766,
      "##io": 767,
      "am": 768,
      "##her": 769,
      "##ros": 770,
      "##ided": 771,
      "##atic": 772,
      "##ose": 773,
      "##ars": 774,
      "card": 775,
      "##air": 776,
      "##otomy": 777,
      "por": 778,
      "applied": 779,
      "done": 780,
      "##ried": 781,
      "tolerated": 782,
      "##hes": 783,
      "##reat": 784,
      "##umb": 785,
      "dire": 786,
      "tes": 787,
      "##cy": 788,
      "recover": 789,
      "abdomen": 790,
      "##ked": 791,
      "fascia": 792,
      "##ful": 793,
      "##av": 794,
      "coronary": 795,
      "##hed": 796,
      "##ech": 797,
      "neg": 798,
      "joint": 799,
      "discus": 800,
      "##ured": 801,
      "##ament": 802,
      "##alu": 803,
      "12": 804,
      "nerve": 805,
      "##entric": 806,
      "pat": 807,
      "##erg": 808,
      "ass": 809,
      "fir": 810,
      "gu": 811,
      "15": 812,
      "ang": 813,
      "once": 814,
      "plan": 815,
      "##ross": 816,
      "negative": 817,
      "cont": 818,
      "##alp": 819,
      "examination": 820,
      "bleeding": 821,
      "bone": 822,
      "ul": 823,
      "##ron": 824,
      "ligament": 825,
      "##cess": 826,
      "##ove": 827,
      "##ock": 828,
      "incl": 829,
      "none": 830,
      "recovery": 831,
      "po": 832,
      "diffic": 833,
      "kne": 834,
      "##ures": 835,
      "needle": 836,
      "ve": 837,
      "contin": 838,
      "sin": 839,
      "##les": 840,
      "##hys": 841,
      "cal": 842,
      "non": 843,
      "within": 844,
      "evalu": 845,
      "diagnoses": 846,
      "neu": 847,
      "subcutaneous": 848,
      "hemostasis": 849,
      "syst": 850,
      "##vious": 851,
      "##ers": 852,
      "gl": 853,
      "##tered": 854,
      "##uct": 855,
      "##ute": 856,
      "neck": 857,
      "ref": 858,
      "point": 859,
      "##oug": 860,
      "bet": 861,
      "li": 862,
      "very": 863,
      "sutures": 864,
      "##ance": 865,
      "##ving": 866,
      "##itis": 867,
      "intact": 868,
      "cr": 869,
      "##ange": 870,
      "usual": 871,
      "fract": 872,
      "again": 873,
      "##ending": 874,
      "man": 875,
      "heart": 876,
      "should": 877,
      "cap": 878,
      "mod": 879,
      "##ium": 880,
      "difficult": 881,
      "rem": 882,
      "bre": 883,
      "##ating": 884,
      "##sy": 885,
      "long": 886,
      "above": 887,
      "colon": 888,
      "knee": 889,
      "ed": 890,
      "first": 891,
      "sl": 892,
      "inserted": 893,
      "##ator": 894,
      "##ious": 895,
      "spec": 896,
      "dur": 897,
      "ventric": 898,
      "##oma": 899,
      "##urr": 900,
      "biop": 901,
      "stat": 902,
      "fur": 903,
      "found": 904,
      "##unction": 905,
      "##ology": 906,
      "further": 907,
      "dress": 908,
      "tube": 909,
      "##ulti": 910,
      "run": 911,
      "about": 912,
      "##ique": 913,
      "##eng": 914,
      "consent": 915,
      "##asc": 916,
      "##ised": 917,
      "25": 918,
      "surgical": 919,
      "femoral": 920,
      "vein": 921,
      "##ste": 922,
      "##tis": 923,
      "##ark": 924,
      "co": 925,
      "supine": 926,
      "ml": 927,
      "scre": 928,
      "##ize": 929,
      "##iog": 930,
      "det": 931,
      "pri": 932,
      "##pos": 933,
      "##tions": 934,
      "aspect": 935,
      "sten": 936,
      "wee": 937,
      "##par": 938,
      "##arg": 939,
      "cy": 940,
      "infer": 941,
      "##med": 942,
      "deg": 943,
      "operative": 944,
      "foot": 945,
      "prior": 946,
      "phys": 947,
      "off": 948,
      "muscle": 949,
      "wall": 950,
      "##trac": 951,
      "hyper": 952,
      "where": 953,
      "##ible": 954,
      "##pri": 955,
      "discussed": 956,
      "place": 957,
      "##acheal": 958,
      "##emp": 959,
      "##ram": 960,
      "##cted": 961,
      "showed": 962,
      "##ticular": 963,
      "##tom": 964,
      "red": 965,
      "##cer": 966,
      "appropri": 967,
      "multi": 968,
      "cut": 969,
      "##ke": 970,
      "il": 971,
      "resp": 972,
      "symp": 973,
      "ey": 974,
      "##cc": 975,
      "##round": 976,
      "##ench": 977,
      "oste": 978,
      "carried": 979,
      "tendon": 980,
      "mot": 981,
      "bilaterally": 982,
      "##arkable": 983,
      "ure": 984,
      "risks": 985,
      "site": 986,
      "##line": 987,
      "##ension": 988,
      "tum": 989,
      "following": 990,
      "revealed": 991,
      "stenosis": 992,
      "##ms": 993,
      "elev": 994,
      "##br": 995,
      "soft": 996,
      "descri": 997,
      "##ull": 998,
      "does": 999,
      "hern": 1000,
      "##ough": 1001,
      "cre": 1002,
      "large": 1003,
      "ph": 1004,
      "##rup": 1005,
      "##ust": 1006,
      "##ascular": 1007,
      "wor": 1008,
      "than": 1009,
      "drain": 1010,
      "these": 1011,
      "elect": 1012,
      "extremity": 1013,
      "running": 1014,
      "##amp": 1015,
      "##ody": 1016,
      "##remarkable": 1017,
      "##ization": 1018,
      "unremarkable": 1019,
      "##otr": 1020,
      "adv": 1021,
      "irrigated": 1022,
      "screw": 1023,
      "fracture": 1024,
      "##ength": 1025,
      "symptom": 1026,
      "table": 1027,
      "##osp": 1028,
      "system": 1029,
      "##vity": 1030,
      "its": 1031,
      "detail": 1032,
      "pass": 1033,
      "dep": 1034,
      "occ": 1035,
      "dors": 1036,
      "superior": 1037,
      "den": 1038,
      "medications": 1039,
      "##igh": 1040,
      "attention": 1041,
      "##reased": 1042,
      "##rupted": 1043,
      "##ame": 1044,
      "##ended": 1045,
      "french": 1046,
      "##are": 1047,
      "##irc": 1048,
      "cc": 1049,
      "##iac": 1050,
      "##ges": 1051,
      "previous": 1052,
      "abdominal": 1053,
      "lob": 1054,
      "inferior": 1055,
      "##ile": 1056,
      "##ore": 1057,
      "anti": 1058,
      "iv": 1059,
      "interrupted": 1060,
      "val": 1061,
      "##view": 1062,
      "##ption": 1063,
      "##ternal": 1064,
      "past": 1065,
      "##enal": 1066,
      "##atory": 1067,
      "20": 1068,
      "fluid": 1069,
      "dressing": 1070,
      "##urned": 1071,
      "##ise": 1072,
      "wire": 1073,
      "##ations": 1074,
      "##ause": 1075,
      "total": 1076,
      "##elv": 1077,
      "##ural": 1078,
      "chang": 1079,
      "##oscope": 1080,
      "##rop": 1081,
      "##equ": 1082,
      "##aining": 1083,
      "##essel": 1084,
      "difficulty": 1085,
      "##verse": 1086,
      "adequ": 1087,
      "tumor": 1088,
      "##ater": 1089,
      "##otracheal": 1090,
      "sw": 1091,
      "ap": 1092,
      "##ian": 1093,
      "tech": 1094,
      "##king": 1095,
      "throughout": 1096,
      "circ": 1097,
      "vessel": 1098,
      "##ency": 1099,
      "local": 1100,
      "##onstr": 1101,
      "portion": 1102,
      "size": 1103,
      "##led": 1104,
      "dem": 1105,
      "operation": 1106,
      "fib": 1107,
      "impression": 1108,
      "lim": 1109,
      "endotracheal": 1110,
      "region": 1111,
      "##ocaine": 1112,
      "flex": 1113,
      "##sf": 1114,
      "##val": 1115,
      "blade": 1116,
      "##ervical": 1117,
      "poss": 1118,
      "di": 1119,
      "may": 1120,
      "tourn": 1121,
      "##iquet": 1122,
      "tourniquet": 1123,
      "def": 1124,
      "more": 1125,
      "hosp": 1126,
      "main": 1127,
      "##ymp": 1128,
      "instr": 1129,
      "bec": 1130,
      "##ung": 1131,
      "techn": 1132,
      "del": 1133,
      "would": 1134,
      "appeared": 1135,
      "##monary": 1136,
      "space": 1137,
      "hospital": 1138,
      "##atars": 1139,
      "signs": 1140,
      "##ferred": 1141,
      "##onch": 1142,
      "bow": 1143,
      "clamp": 1144,
      "estim": 1145,
      "symptoms": 1146,
      "aw": 1147,
      "lid": 1148,
      "esoph": 1149,
      "##me": 1150,
      "obs": 1151,
      "midline": 1152,
      "continu": 1153,
      "multiple": 1154,
      "##day": 1155,
      "##ips": 1156,
      "lo": 1157,
      "review": 1158,
      "##unt": 1159,
      "cord": 1160,
      "port": 1161,
      "female": 1162,
      "how": 1163,
      "ple": 1164,
      "##ution": 1165,
      "infl": 1166,
      "##ortic": 1167,
      "caps": 1168,
      "estimated": 1169,
      "cervical": 1170,
      "dissected": 1171,
      "acute": 1172,
      "bene": 1173,
      "##normal": 1174,
      "##ents": 1175,
      "abnormal": 1176,
      "indications": 1177,
      "along": 1178,
      "##bil": 1179,
      "200": 1180,
      "##ened": 1181,
      "appropriate": 1182,
      "external": 1183,
      "my": 1184,
      "disch": 1185,
      "addition": 1186,
      "##oti": 1187,
      "##ice": 1188,
      "##ax": 1189,
      "##uding": 1190,
      "##athy": 1191,
      "physical": 1192,
      "free": 1193,
      "lung": 1194,
      "intra": 1195,
      "ur": 1196,
      "##ug": 1197,
      "minim": 1198,
      "em": 1199,
      "month": 1200,
      "##enous": 1201,
      "repair": 1202,
      "##arp": 1203,
      "##utes": 1204,
      "bowel": 1205,
      "sent": 1206,
      "sev": 1207,
      "##otid": 1208,
      "transverse": 1209,
      "dil": 1210,
      "sal": 1211,
      "minutes": 1212,
      "amount": 1213,
      "metatars": 1214,
      "him": 1215,
      "##rod": 1216,
      "sens": 1217,
      "##uced": 1218,
      "lay": 1219,
      "expl": 1220,
      "##ments": 1221,
      "guide": 1222,
      "##uff": 1223,
      "cop": 1224,
      "could": 1225,
      "##bral": 1226,
      "corre": 1227,
      "extremities": 1228,
      "##asp": 1229,
      "medical": 1230,
      "##tern": 1231,
      "##ake": 1232,
      "internal": 1233,
      "##row": 1234,
      "##eld": 1235,
      "##iotic": 1236,
      "bo": 1237,
      "muc": 1238,
      "deep": 1239,
      "antib": 1240,
      "imag": 1241,
      "technique": 1242,
      "pelv": 1243,
      "##ever": 1244,
      "##anc": 1245,
      "prost": 1246,
      "arth": 1247,
      "bronch": 1248,
      "evaluation": 1249,
      "moder": 1250,
      "11": 1251,
      "weight": 1252,
      "lobe": 1253,
      "if": 1254,
      "conf": 1255,
      "including": 1256,
      "ct": 1257,
      "carotid": 1258,
      "adequate": 1259,
      "uter": 1260,
      "informed": 1261,
      "l5": 1262,
      "eff": 1263,
      "circum": 1264,
      "electroc": 1265,
      "see": 1266,
      "lab": 1267,
      "arteri": 1268,
      "poly": 1269,
      "rate": 1270,
      "##omm": 1271,
      "changes": 1272,
      "dys": 1273,
      "three": 1274,
      "infection": 1275,
      "direct": 1276,
      "severe": 1277,
      "nas": 1278,
      "##ick": 1279,
      "rele": 1280,
      "line": 1281,
      "chron": 1282,
      "dorsal": 1283,
      "however": 1284,
      "atr": 1285,
      "sed": 1286,
      "util": 1287,
      "followed": 1288,
      "sol": 1289,
      "##tric": 1290,
      "pr": 1291,
      "##tit": 1292,
      "##anced": 1293,
      "proble": 1294,
      "benef": 1295,
      "gall": 1296,
      "##ope": 1297,
      "nod": 1298,
      "lymp": 1299,
      "##aft": 1300,
      "antibiotic": 1301,
      "cent": 1302,
      "fi": 1303,
      "##ule": 1304,
      "around": 1305,
      "clin": 1306,
      "##oscopic": 1307,
      "lymph": 1308,
      "##ening": 1309,
      "proce": 1310,
      "comm": 1311,
      "lap": 1312,
      "##ues": 1313,
      "careful": 1314,
      "##urs": 1315,
      "##ts": 1316,
      "##itone": 1317,
      "subse": 1318,
      "cann": 1319,
      "meas": 1320,
      "30": 1321,
      "just": 1322,
      "they": 1323,
      "ray": 1324,
      "treat": 1325,
      "during": 1326,
      "chronic": 1327,
      "go": 1328,
      "valve": 1329,
      "##tum": 1330,
      "pulmonary": 1331,
      "specim": 1332,
      "proceed": 1333,
      "aortic": 1334,
      "prol": 1335,
      "minimal": 1336,
      "body": 1337,
      "sim": 1338,
      "shoulder": 1339,
      "##yp": 1340,
      "eye": 1341,
      "sac": 1342,
      "electrocau": 1343,
      "##ner": 1344,
      "saline": 1345,
      "copious": 1346,
      "##mit": 1347,
      "##erm": 1348,
      "when": 1349,
      "##ula": 1350,
      "contr": 1351,
      "tib": 1352,
      "##iated": 1353,
      "electrocautery": 1354,
      "##elf": 1355,
      "##actory": 1356,
      "sati": 1357,
      "##rapy": 1358,
      "cyst": 1359,
      "biopsy": 1360,
      "renal": 1361,
      "due": 1362,
      "use": 1363,
      "count": 1364,
      "calc": 1365,
      "##ole": 1366,
      "##artment": 1367,
      "satisf": 1368,
      "palp": 1369,
      "ill": 1370,
      "##thm": 1371,
      "description": 1372,
      "demonstr": 1373,
      "##istent": 1374,
      "hypert": 1375,
      "subsequ": 1376,
      "male": 1377,
      "sharp": 1378,
      "carp": 1379,
      "fam": 1380,
      "recomm": 1381,
      "##ature": 1382,
      "##ulation": 1383,
      "mri": 1384,
      "kn": 1385,
      "##we": 1386,
      "##ates": 1387,
      "sheath": 1388,
      "upon": 1389,
      "advanced": 1390,
      "moderate": 1391,
      "high": 1392,
      "visualized": 1393,
      "family": 1394,
      "today": 1395,
      "##minis": 1396,
      "##opathy": 1397,
      "allerg": 1398,
      "cau": 1399,
      "passed": 1400,
      "leg": 1401,
      "stud": 1402,
      "adminis": 1403,
      "hand": 1404,
      "rel": 1405,
      "sa": 1406,
      "spine": 1407,
      "##velop": 1408,
      "rot": 1409,
      "##amin": 1410,
      "##ema": 1411,
      "develop": 1412,
      "##arged": 1413,
      "el": 1414,
      "##itor": 1415,
      "closure": 1416,
      "transferred": 1417,
      "vital": 1418,
      "thor": 1419,
      "anesthetic": 1420,
      "hernia": 1421,
      "prob": 1422,
      "canal": 1423,
      "ach": 1424,
      "te": 1425,
      "lesions": 1426,
      "##onge": 1427,
      "path": 1428,
      "initi": 1429,
      "div": 1430,
      "##vely": 1431,
      "length": 1432,
      "scope": 1433,
      "sinus": 1434,
      "status": 1435,
      "motion": 1436,
      "sedation": 1437,
      "fix": 1438,
      "placement": 1439,
      "acc": 1440,
      "##urrent": 1441,
      "great": 1442,
      "pen": 1443,
      "prot": 1444,
      "arm": 1445,
      "metatarsal": 1446,
      "treatment": 1447,
      "typ": 1448,
      "years": 1449,
      "##ps": 1450,
      "ventricular": 1451,
      "##bl": 1452,
      "fac": 1453,
      "requ": 1454,
      "benefits": 1455,
      "tear": 1456,
      "lapar": 1457,
      "short": 1458,
      "stap": 1459,
      "esophag": 1460,
      "air": 1461,
      "fore": 1462,
      "lidocaine": 1463,
      "##elt": 1464,
      "dist": 1465,
      "days": 1466,
      "##ward": 1467,
      "carpal": 1468,
      "sever": 1469,
      "elevated": 1470,
      "base": 1471,
      "aspir": 1472,
      "50": 1473,
      "fre": 1474,
      "##roid": 1475,
      "##teriz": 1476,
      "ureter": 1477,
      "able": 1478,
      "full": 1479,
      "##nel": 1480,
      "obstr": 1481,
      "control": 1482,
      "##wn": 1483,
      "expos": 1484,
      "injected": 1485,
      "impro": 1486,
      "##ounds": 1487,
      "possible": 1488,
      "most": 1489,
      "##flex": 1490,
      "surf": 1491,
      "inv": 1492,
      "ma": 1493,
      "confir": 1494,
      "satisfactory": 1495,
      "c5": 1496,
      "home": 1497,
      "##co": 1498,
      "supp": 1499,
      "peri": 1500,
      "marc": 1501,
      "ga": 1502,
      "tun": 1503,
      "ped": 1504,
      "##ility": 1505,
      "append": 1506,
      "##rolog": 1507,
      "cavity": 1508,
      "marg": 1509,
      "marcaine": 1510,
      "because": 1511,
      "##ulated": 1512,
      "last": 1513,
      "lumb": 1514,
      "denies": 1515,
      "gast": 1516,
      "c6": 1517,
      "s1": 1518,
      "ank": 1519,
      "insp": 1520,
      "ax": 1521,
      "felt": 1522,
      "##orted": 1523,
      "flap": 1524,
      "##phr": 1525,
      "##roscop": 1526,
      "##ord": 1527,
      "##action": 1528,
      "weeks": 1529,
      "rest": 1530,
      "quad": 1531,
      "being": 1532,
      "hyp": 1533,
      "function": 1534,
      "blunt": 1535,
      "##iograp": 1536,
      "type": 1537,
      "star": 1538,
      "stent": 1539,
      "suction": 1540,
      "##tebral": 1541,
      "patell": 1542,
      "since": 1543,
      "betwe": 1544,
      "mucos": 1545,
      "between": 1546,
      "19": 1547,
      "gross": 1548,
      "##fore": 1549,
      "sciss": 1550,
      "##plac": 1551,
      "opened": 1552,
      "problems": 1553,
      "aort": 1554,
      "##ves": 1555,
      "##orr": 1556,
      "retrac": 1557,
      "aden": 1558,
      "##fice": 1559,
      "graft": 1560,
      "gallbl": 1561,
      "gallbladder": 1562,
      "mic": 1563,
      "##ok": 1564,
      "##amm": 1565,
      "##ically": 1566,
      "turned": 1567,
      "##ins": 1568,
      "##rome": 1569,
      "scan": 1570,
      "having": 1571,
      "18": 1572,
      "dig": 1573,
      "##phal": 1574,
      "carefully": 1575,
      "subsequently": 1576,
      "white": 1577,
      "block": 1578,
      "four": 1579,
      "##ified": 1580,
      "##asty": 1581,
      "excell": 1582,
      "stom": 1583,
      "100": 1584,
      "subcu": 1585,
      "assess": 1586,
      "excellent": 1587,
      "hour": 1588,
      "l4": 1589,
      "increased": 1590,
      "14": 1591,
      "our": 1592,
      "##aum": 1593,
      "##cin": 1594,
      "get": 1595,
      "##app": 1596,
      "therapy": 1597,
      "stand": 1598,
      "brain": 1599,
      "neurolog": 1600,
      "##olar": 1601,
      "##eal": 1602,
      "fluor": 1603,
      "cour": 1604,
      "tissues": 1605,
      "contrast": 1606,
      "case": 1607,
      "##izing": 1608,
      "##hythm": 1609,
      "hemat": 1610,
      "complete": 1611,
      "##sion": 1612,
      "##iogram": 1613,
      "##iting": 1614,
      "administered": 1615,
      "less": 1616,
      "##ason": 1617,
      "consistent": 1618,
      "respir": 1619,
      "common": 1620,
      "##iver": 1621,
      "##ulum": 1622,
      "mor": 1623,
      "tri": 1624,
      "achie": 1625,
      "##vascular": 1626,
      "thick": 1627,
      "solution": 1628,
      "tunnel": 1629,
      "##ux": 1630,
      "##tire": 1631,
      "extens": 1632,
      "##neum": 1633,
      "entire": 1634,
      "##est": 1635,
      "##ument": 1636,
      "allow": 1637,
      "retro": 1638,
      "prolene": 1639,
      "ser": 1640,
      "week": 1641,
      "nasal": 1642,
      "stomach": 1643,
      "ear": 1644,
      "stit": 1645,
      "beg": 1646,
      "secondary": 1647,
      "weak": 1648,
      "##itive": 1649,
      "risk": 1650,
      "spinal": 1651,
      "underw": 1652,
      "breast": 1653,
      "scalp": 1654,
      "ori": 1655,
      "temp": 1656,
      "##dle": 1657,
      "complain": 1658,
      "heal": 1659,
      "mother": 1660,
      "underwent": 1661,
      "pneum": 1662,
      "compon": 1663,
      "screws": 1664,
      "divided": 1665,
      "##ber": 1666,
      "##ished": 1667,
      "descending": 1668,
      "central": 1669,
      "scissors": 1670,
      "16": 1671,
      "rece": 1672,
      "edema": 1673,
      "##lying": 1674,
      "cardiac": 1675,
      "fail": 1676,
      "sit": 1677,
      "##und": 1678,
      "motor": 1679,
      "now": 1680,
      "additional": 1681,
      "ankle": 1682,
      "cell": 1683,
      "course": 1684,
      "vag": 1685,
      "bel": 1686,
      "monitor": 1687,
      "subcuticular": 1688,
      "13": 1689,
      "da": 1690,
      "vie": 1691,
      "radi": 1692,
      "correct": 1693,
      "quadr": 1694,
      "view": 1695,
      "##ma": 1696,
      "only": 1697,
      "sug": 1698,
      "separ": 1699,
      "injur": 1700,
      "surface": 1701,
      "##onal": 1702,
      "images": 1703,
      "sil": 1704,
      "plate": 1705,
      "##ubated": 1706,
      "daily": 1707,
      "##ert": 1708,
      "exp": 1709,
      "plant": 1710,
      "av": 1711,
      "until": 1712,
      "hyd": 1713,
      "ques": 1714,
      "visualization": 1715,
      "bovie": 1716,
      "several": 1717,
      "##nx": 1718,
      "##isc": 1719,
      "abs": 1720,
      "regular": 1721,
      "pathology": 1722,
      "range": 1723,
      "thir": 1724,
      "##olic": 1725,
      "ago": 1726,
      "includ": 1727,
      "prostate": 1728,
      "##uinal": 1729,
      "struct": 1730,
      "duct": 1731,
      "smo": 1732,
      "procedures": 1733,
      "##arynx": 1734,
      "laterally": 1735,
      "##omp": 1736,
      "retr": 1737,
      "secured": 1738,
      "##wise": 1739,
      "##hen": 1740,
      "##tial": 1741,
      "chec": 1742,
      "##medi": 1743,
      "tibial": 1744,
      "##arm": 1745,
      "synd": 1746,
      "months": 1747,
      "aorta": 1748,
      "##illary": 1749,
      "middle": 1750,
      "illness": 1751,
      "fing": 1752,
      "seg": 1753,
      "removal": 1754,
      "mmh": 1755,
      "deliver": 1756,
      "emerg": 1757,
      "enl": 1758,
      "standard": 1759,
      "syndrome": 1760,
      "cuff": 1761,
      "numb": 1762,
      "##ley": 1763,
      "debr": 1764,
      "rhythm": 1765,
      "peritone": 1766,
      "specimen": 1767,
      "##iat": 1768,
      "prog": 1769,
      "drill": 1770,
      "slight": 1771,
      "allergies": 1772,
      "developed": 1773,
      "across": 1774,
      "lumbar": 1775,
      "quadrant": 1776,
      "hip": 1777,
      "troc": 1778,
      "proximally": 1779,
      "age": 1780,
      "hol": 1781,
      "##icle": 1782,
      "##anch": 1783,
      "weakness": 1784,
      "third": 1785,
      "mmhg": 1786,
      "mem": 1787,
      "##ture": 1788,
      "##ex": 1789,
      "ing": 1790,
      "er": 1791,
      "final": 1792,
      "##bed": 1793,
      "##vement": 1794,
      "##iltr": 1795,
      "##ential": 1796,
      "##orrh": 1797,
      "##ocard": 1798,
      "sep": 1799,
      "times": 1800,
      "##ually": 1801,
      "##read": 1802,
      "##icular": 1803,
      "reason": 1804,
      "pelvis": 1805,
      "plantar": 1806,
      "department": 1807,
      "perf": 1808,
      "incised": 1809,
      "directed": 1810,
      "discharge": 1811,
      "lit": 1812,
      "##ontal": 1813,
      "##roph": 1814,
      "stress": 1815,
      "result": 1816,
      "monoc": 1817,
      "##man": 1818,
      "##ilar": 1819,
      "compression": 1820,
      "breath": 1821,
      "mes": 1822,
      "vascular": 1823,
      "office": 1824,
      "branch": 1825,
      "injection": 1826,
      "##mitted": 1827,
      "invol": 1828,
      "40": 1829,
      "##ias": 1830,
      "##gr": 1831,
      "infiltr": 1832,
      "grasp": 1833,
      "states": 1834,
      "retract": 1835,
      "60": 1836,
      "##ions": 1837,
      "##astom": 1838,
      "flow": 1839,
      "manner": 1840,
      "achieved": 1841,
      "attemp": 1842,
      "masses": 1843,
      "monocryl": 1844,
      "ball": 1845,
      "cur": 1846,
      "pe": 1847,
      "##urg": 1848,
      "atrial": 1849,
      "esophagus": 1850,
      "##elling": 1851,
      "resection": 1852,
      "distally": 1853,
      "test": 1854,
      "mucosa": 1855,
      "silk": 1856,
      "pal": 1857,
      "##usp": 1858,
      "root": 1859,
      "acti": 1860,
      "##ysis": 1861,
      "liver": 1862,
      "bul": 1863,
      "anastom": 1864,
      "disk": 1865,
      "adhes": 1866,
      "cancer": 1867,
      "inguinal": 1868,
      "make": 1869,
      "##tical": 1870,
      "reflex": 1871,
      "##uch": 1872,
      "##ered": 1873,
      "withd": 1874,
      "sponge": 1875,
      "hemorrh": 1876,
      "each": 1877,
      "##tle": 1878,
      "pot": 1879,
      "via": 1880,
      "##astric": 1881,
      "introd": 1882,
      "ultr": 1883,
      "antibiotics": 1884,
      "vision": 1885,
      "##wire": 1886,
      "fixation": 1887,
      "assessment": 1888,
      "mal": 1889,
      "##ney": 1890,
      "nar": 1891,
      "wr": 1892,
      "thy": 1893,
      "##ageal": 1894,
      "immedi": 1895,
      "uterus": 1896,
      "os": 1897,
      "pack": 1898,
      "spl": 1899,
      "otherwise": 1900,
      "uln": 1901,
      "biops": 1902,
      "continued": 1903,
      "field": 1904,
      "##lated": 1905,
      "areas": 1906,
      "gastro": 1907,
      "tip": 1908,
      "##ont": 1909,
      "trache": 1910,
      "##son": 1911,
      "presented": 1912,
      "retracted": 1913,
      "##itud": 1914,
      "##olateral": 1915,
      "##eth": 1916,
      "abc": 1917,
      "insertion": 1918,
      "cran": 1919,
      "created": 1920,
      "pac": 1921,
      "prov": 1922,
      "appears": 1923,
      "marked": 1924,
      "pulse": 1925,
      "ureth": 1926,
      "##tely": 1927,
      "underst": 1928,
      "cautery": 1929,
      "fat": 1930,
      "decreased": 1931,
      "degen": 1932,
      "work": 1933,
      "confirmed": 1934,
      "##ived": 1935,
      "##ined": 1936,
      "order": 1937,
      "change": 1938,
      "##ressive": 1939,
      "##phrine": 1940,
      "bon": 1941,
      "##va": 1942,
      "##ylon": 1943,
      "pin": 1944,
      "dry": 1945,
      "##ife": 1946,
      "irrigation": 1947,
      "feel": 1948,
      "injury": 1949,
      "segment": 1950,
      "##oon": 1951,
      "##order": 1952,
      "##opl": 1953,
      "suite": 1954,
      "appar": 1955,
      "entered": 1956,
      "utilizing": 1957,
      "coll": 1958,
      "nylon": 1959,
      "##erc": 1960,
      "##res": 1961,
      "radial": 1962,
      "reduction": 1963,
      "defect": 1964,
      "kid": 1965,
      "light": 1966,
      "same": 1967,
      "repe": 1968,
      "emergency": 1969,
      "thin": 1970,
      "##ultation": 1971,
      "strips": 1972,
      "capsule": 1973,
      "eas": 1974,
      "venous": 1975,
      "spe": 1976,
      "tender": 1977,
      "started": 1978,
      "##ocal": 1979,
      "flus": 1980,
      "epine": 1981,
      "ulnar": 1982,
      "##avi": 1983,
      "syn": 1984,
      "assoc": 1985,
      "like": 1986,
      "greater": 1987,
      "##ying": 1988,
      "positive": 1989,
      "completely": 1990,
      "continue": 1991,
      "swelling": 1992,
      "hours": 1993,
      "received": 1994,
      "withdra": 1995,
      "ring": 1996,
      "t1": 1997,
      "explained": 1998,
      "ultras": 1999,
      "##rosis": 2000,
      "recommend": 2001,
      "bed": 2002,
      "cys": 2003,
      "gau": 2004,
      "reapp": 2005,
      "layer": 2006,
      "epinephrine": 2007,
      "gro": 2008,
      "pad": 2009,
      "process": 2010,
      "enc": 2011,
      "muscles": 2012,
      "headache": 2013,
      "systems": 2014,
      "lum": 2015,
      "drug": 2016,
      "instrument": 2017,
      "um": 2018,
      "##unc": 2019,
      "note": 2020,
      "ultrasound": 2021,
      "umbil": 2022,
      "cere": 2023,
      "unit": 2024,
      "previously": 2025,
      "intraoperative": 2026,
      "release": 2027,
      "dou": 2028,
      "##iet": 2029,
      "##mme": 2030,
      "obl": 2031,
      "sugges": 2032,
      "diab": 2033,
      "chole": 2034,
      "decomp": 2035,
      "structures": 2036,
      "##mar": 2037,
      "##uring": 2038,
      "scalpel": 2039,
      "extr": 2040,
      "bas": 2041,
      "sensory": 2042,
      "men": 2043,
      "##fort": 2044,
      "##roxim": 2045,
      "scro": 2046,
      "return": 2047,
      "remaining": 2048,
      "respiratory": 2049,
      "grasped": 2050,
      "reapproxim": 2051,
      "patent": 2052,
      "thorac": 2053,
      "extended": 2054,
      "form": 2055,
      "mater": 2056,
      "##ephal": 2057,
      "shows": 2058,
      "osteotomy": 2059,
      "##cinoma": 2060,
      "hypertension": 2061,
      "copiously": 2062,
      "biopsies": 2063,
      "ii": 2064,
      "tons": 2065,
      "##rees": 2066,
      "##lected": 2067,
      "returned": 2068,
      "guidewire": 2069,
      "prim": 2070,
      "demonstrated": 2071,
      "band": 2072,
      "##hol": 2073,
      "discharged": 2074,
      "similar": 2075,
      "study": 2076,
      "component": 2077,
      "sle": 2078,
      "stab": 2079,
      "perc": 2080,
      "admitted": 2081,
      "remove": 2082,
      "##ached": 2083,
      "foley": 2084,
      "trocar": 2085,
      "anastomosis": 2086,
      "cult": 2087,
      "##ned": 2088,
      "##ficial": 2089,
      "ligated": 2090,
      "reviewed": 2091,
      "cystic": 2092,
      "completed": 2093,
      "circumflex": 2094,
      "hel": 2095,
      "associated": 2096,
      "##ind": 2097,
      "slow": 2098,
      "vessels": 2099,
      "inflamm": 2100,
      "##terization": 2101,
      "finger": 2102,
      "##grade": 2103,
      "adhesions": 2104,
      "junction": 2105,
      "##go": 2106,
      "##zen": 2107,
      "##till": 2108,
      "neuro": 2109,
      "released": 2110,
      "stitch": 2111,
      "scar": 2112,
      "obstruction": 2113,
      "failure": 2114,
      "##ool": 2115,
      "grade": 2116,
      "reported": 2117,
      "quite": 2118,
      "layers": 2119,
      "effusion": 2120,
      "below": 2121,
      "##ited": 2122,
      "oral": 2123,
      "angiograp": 2124,
      "easily": 2125,
      "equ": 2126,
      "ten": 2127,
      "way": 2128,
      "##uod": 2129,
      "replac": 2130,
      "introduced": 2131,
      "hard": 2132,
      "ker": 2133,
      "mc": 2134,
      "vom": 2135,
      "##lux": 2136,
      "##itation": 2137,
      "##idual": 2138,
      "cond": 2139,
      "perform": 2140,
      "incre": 2141,
      "fever": 2142,
      "lad": 2143,
      "var": 2144,
      "complex": 2145,
      "rect": 2146,
      "##entially": 2147,
      "partial": 2148,
      "clean": 2149,
      "intrav": 2150,
      "maint": 2151,
      "##itus": 2152,
      "altern": 2153,
      "##eratively": 2154,
      "followup": 2155,
      "strength": 2156,
      "counts": 2157,
      "ever": 2158,
      "##pt": 2159,
      "##aryng": 2160,
      "orient": 2161,
      "questions": 2162,
      "##ov": 2163,
      "##kely": 2164,
      "##ective": 2165,
      "vertebral": 2166,
      "put": 2167,
      "##inary": 2168,
      "heent": 2169,
      "new": 2170,
      "deform": 2171,
      "limits": 2172,
      "going": 2173,
      "vaginal": 2174,
      "balloon": 2175,
      "bony": 2176,
      "tenderness": 2177,
      "sing": 2178,
      "tre": 2179,
      "##moid": 2180,
      "##ification": 2181,
      "laparoscopic": 2182,
      "health": 2183,
      "24": 2184,
      "night": 2185,
      "##gen": 2186,
      "##operatively": 2187,
      "incisions": 2188,
      "report": 2189,
      "##oration": 2190,
      "##ats": 2191,
      "##try": 2192,
      "##ocial": 2193,
      "oblique": 2194,
      "rh": 2195,
      "take": 2196,
      "mur": 2197,
      "recurrent": 2198,
      "##ather": 2199,
      "polyp": 2200,
      "utilized": 2201,
      "temporal": 2202,
      "##outh": 2203,
      "indication": 2204,
      "excised": 2205,
      "clinical": 2206,
      "saw": 2207,
      "degenerative": 2208,
      "alert": 2209,
      "##meter": 2210,
      "social": 2211,
      "excision": 2212,
      "withdrawn": 2213,
      "mat": 2214,
      "toward": 2215,
      "promin": 2216,
      "##other": 2217,
      "degrees": 2218,
      "thyroid": 2219,
      "sleep": 2220,
      "single": 2221,
      "##ling": 2222,
      "##jection": 2223,
      "close": 2224,
      "impl": 2225,
      "degree": 2226,
      "##rophy": 2227,
      "pelvic": 2228,
      "labor": 2229,
      "amp": 2230,
      "nause": 2231,
      "dev": 2232,
      "epis": 2233,
      "occl": 2234,
      "lungs": 2235,
      "92": 2236,
      "90": 2237,
      "##otic": 2238,
      "##emia": 2239,
      "##ired": 2240,
      "superficial": 2241,
      "initially": 2242,
      "ery": 2243,
      "kidney": 2244,
      "##tt": 2245,
      "inspected": 2246,
      "patella": 2247,
      "help": 2248,
      "fill": 2249,
      "##ably": 2250,
      "nont": 2251,
      "gait": 2252,
      "slightly": 2253,
      "reflexes": 2254,
      "reapproximated": 2255,
      "mouth": 2256,
      "wa": 2257,
      "##lec": 2258,
      "concer": 2259,
      "cartil": 2260,
      "symme": 2261,
      "##tinal": 2262,
      "stra": 2263,
      "suctioned": 2264,
      "sided": 2265,
      "##ender": 2266,
      "rectal": 2267,
      "needed": 2268,
      "epid": 2269,
      "narrow": 2270,
      "episod": 2271,
      "80": 2272,
      "later": 2273,
      "##ox": 2274,
      "##fth": 2275,
      "therefore": 2276,
      "##ticul": 2277,
      "urine": 2278,
      "murm": 2279,
      "bro": 2280,
      "##terolateral": 2281,
      "foram": 2282,
      "what": 2283,
      "cham": 2284,
      "approximated": 2285,
      "cannula": 2286,
      "based": 2287,
      "##ds": 2288,
      "##pass": 2289,
      "##ogram": 2290,
      "bypass": 2291,
      "positioned": 2292,
      "fifth": 2293,
      "distress": 2294,
      "nausea": 2295,
      "straight": 2296,
      "fall": 2297,
      "conc": 2298,
      "##romic": 2299,
      "##ucted": 2300,
      "likely": 2301,
      "longitud": 2302,
      "longitudinal": 2303,
      "##ze": 2304,
      "##ontin": 2305,
      "##etes": 2306,
      "diabetes": 2307,
      "material": 2308,
      "cec": 2309,
      "gent": 2310,
      "hum": 2311,
      "taking": 2312,
      "abnormalities": 2313,
      "morning": 2314,
      "sounds": 2315,
      "##cri": 2316,
      "prepar": 2317,
      "intravenous": 2318,
      "c4": 2319,
      "##astic": 2320,
      "##ina": 2321,
      "##ental": 2322,
      "##ils": 2323,
      "extubated": 2324,
      "diff": 2325,
      "little": 2326,
      "menisc": 2327,
      "deformity": 2328,
      "70": 2329,
      "##lation": 2330,
      "##ker": 2331,
      "seiz": 2332,
      "unable": 2333,
      "mobil": 2334,
      "erythe": 2335,
      "hall": 2336,
      "anat": 2337,
      "plain": 2338,
      "##nea": 2339,
      "evaluated": 2340,
      "wrist": 2341,
      "nontender": 2342,
      "current": 2343,
      "ov": 2344,
      "still": 2345,
      "align": 2346,
      "##ape": 2347,
      "adm": 2348,
      "cardiop": 2349,
      "lamin": 2350,
      "##sis": 2351,
      "recent": 2352,
      "obvious": 2353,
      "excess": 2354,
      "ventricle": 2355,
      "vomiting": 2356,
      "lac": 2357,
      "near": 2358,
      "chromic": 2359,
      "access": 2360,
      "pleural": 2361,
      "treated": 2362,
      "ile": 2363,
      "##ef": 2364,
      "##tine": 2365,
      "while": 2366,
      "extension": 2367,
      "inflated": 2368,
      "arteries": 2369,
      "abscess": 2370,
      "flushed": 2371,
      "nerv": 2372,
      "nose": 2373,
      "##ded": 2374,
      "##aly": 2375,
      "##ored": 2376,
      "proper": 2377,
      "conn": 2378,
      "##ucle": 2379,
      "resol": 2380,
      "inters": 2381,
      "better": 2382,
      "membr": 2383,
      "bit": 2384,
      "bip": 2385,
      "ech": 2386,
      "child": 2387,
      "act": 2388,
      "##ologic": 2389,
      "awak": 2390,
      "pounds": 2391,
      "tit": 2392,
      "tem": 2393,
      "##ressed": 2394,
      "residual": 2395,
      "##oids": 2396,
      "aspiration": 2397,
      "periost": 2398,
      "enlarged": 2399,
      "lumen": 2400,
      "went": 2401,
      "##asion": 2402,
      "resected": 2403,
      "anteriorly": 2404,
      "##eps": 2405,
      "medially": 2406,
      "sites": 2407,
      "22": 2408,
      "bic": 2409,
      "bab": 2410,
      "doing": 2411,
      "uterine": 2412,
      "##way": 2413,
      "##adine": 2414,
      "##ission": 2415,
      "betadine": 2416,
      "##sych": 2417,
      "edges": 2418,
      "95": 2419,
      "ben": 2420,
      "##kg": 2421,
      "##yn": 2422,
      "carcinoma": 2423,
      "##peri": 2424,
      "puls": 2425,
      "facial": 2426,
      "decompression": 2427,
      "implant": 2428,
      "lip": 2429,
      "ox": 2430,
      "##bow": 2431,
      "##igmoid": 2432,
      "catheterization": 2433,
      "##ief": 2434,
      "described": 2435,
      "elbow": 2436,
      "cement": 2437,
      "section": 2438,
      "susp": 2439,
      "clock": 2440,
      "versed": 2441,
      "diet": 2442,
      "capsular": 2443,
      "recommended": 2444,
      "duod": 2445,
      "##yst": 2446,
      "##amed": 2447,
      "force": 2448,
      "##ysm": 2449,
      "osteop": 2450,
      "flexor": 2451,
      "staples": 2452,
      "neurologic": 2453,
      "immediately": 2454,
      "17": 2455,
      "lead": 2456,
      "pedicle": 2457,
      "much": 2458,
      "vol": 2459,
      "wal": 2460,
      "##to": 2461,
      "##ret": 2462,
      "toe": 2463,
      "top": 2464,
      "such": 2465,
      "##uctive": 2466,
      "prescri": 2467,
      "drainage": 2468,
      "sensation": 2469,
      "began": 2470,
      "nucle": 2471,
      "##vention": 2472,
      "##inous": 2473,
      "##ancy": 2474,
      "reveals": 2475,
      "rotator": 2476,
      "frequ": 2477,
      "supple": 2478,
      "appendix": 2479,
      "infiltrated": 2480,
      "45": 2481,
      "##mic": 2482,
      "##omin": 2483,
      "portal": 2484,
      "drains": 2485,
      "possib": 2486,
      "amounts": 2487,
      "fluoroscopy": 2488,
      "urethra": 2489,
      "speech": 2490,
      "rectus": 2491,
      "32": 2492,
      "set": 2493,
      "tight": 2494,
      "thro": 2495,
      "transected": 2496,
      "trial": 2497,
      "results": 2498,
      "##romb": 2499,
      "active": 2500,
      "remain": 2501,
      "studies": 2502,
      "extensor": 2503,
      "angiography": 2504,
      "erythema": 2505,
      "cover": 2506,
      "fact": 2507,
      "minute": 2508,
      "colonoscopy": 2509,
      "node": 2510,
      "cat": 2511,
      "cross": 2512,
      "##af": 2513,
      "##galy": 2514,
      "##icated": 2515,
      "##ump": 2516,
      "##stab": 2517,
      "admission": 2518,
      "bun": 2519,
      "cure": 2520,
      "call": 2521,
      "dri": 2522,
      "ekg": 2523,
      "vas": 2524,
      "##anding": 2525,
      "thromb": 2526,
      "seem": 2527,
      "unc": 2528,
      "##entioned": 2529,
      "ulc": 2530,
      "activity": 2531,
      "dose": 2532,
      "hor": 2533,
      "suc": 2534,
      "orig": 2535,
      "medication": 2536,
      "posteriorly": 2537,
      "attach": 2538,
      "clinic": 2539,
      "tied": 2540,
      "xy": 2541,
      "##mg": 2542,
      "##ict": 2543,
      "alco": 2544,
      "systolic": 2545,
      "exposed": 2546,
      "border": 2547,
      "c7": 2548,
      "pun": 2549,
      "##yle": 2550,
      "##onic": 2551,
      "rectum": 2552,
      "opening": 2553,
      "imaging": 2554,
      "ureteral": 2555,
      "improved": 2556,
      "double": 2557,
      "device": 2558,
      "##ominant": 2559,
      "xyz": 2560,
      "##ran": 2561,
      "##esis": 2562,
      "presents": 2563,
      "iliac": 2564,
      "trachea": 2565,
      "nerves": 2566,
      "pi": 2567,
      "##bc": 2568,
      "before": 2569,
      "grad": 2570,
      "cardi": 2571,
      "##cessful": 2572,
      "cecum": 2573,
      "hal": 2574,
      "ke": 2575,
      "wors": 2576,
      "##atives": 2577,
      "conj": 2578,
      "alth": 2579,
      "perip": 2580,
      "adj": 2581,
      "##ubic": 2582,
      "forceps": 2583,
      "although": 2584,
      "##cal": 2585,
      "##lect": 2586,
      "peric": 2587,
      "diameter": 2588,
      "sutured": 2589,
      "##ondyl": 2590,
      "outp": 2591,
      "manag": 2592,
      "controlled": 2593,
      "narrowing": 2594,
      "chamber": 2595,
      "sn": 2596,
      "term": 2597,
      "wed": 2598,
      "##erved": 2599,
      "ans": 2600,
      "##ank": 2601,
      "hep": 2602,
      "hepar": 2603,
      "frag": 2604,
      "##angu": 2605,
      "tubes": 2606,
      "phal": 2607,
      "heparin": 2608,
      "mit": 2609,
      "mix": 2610,
      "pur": 2611,
      "sigmoid": 2612,
      "prep": 2613,
      "##ritis": 2614,
      "itself": 2615,
      "maxim": 2616,
      "##iatric": 2617,
      "throat": 2618,
      "93": 2619,
      "##ring": 2620,
      "ante": 2621,
      "##ellar": 2622,
      "appearing": 2623,
      "##urrently": 2624,
      "250": 2625,
      "dilated": 2626,
      "laceration": 2627,
      "temper": 2628,
      "alcohol": 2629,
      "ra": 2630,
      "##bul": 2631,
      "##gl": 2632,
      "##asing": 2633,
      "##rec": 2634,
      "##ident": 2635,
      "exerc": 2636,
      "##amic": 2637,
      "anestheti": 2638,
      "intervention": 2639,
      "frontal": 2640,
      "branc": 2641,
      "glen": 2642,
      "reflected": 2643,
      "foreign": 2644,
      "include": 2645,
      "awakened": 2646,
      "000": 2647,
      "fusion": 2648,
      "pup": 2649,
      "anal": 2650,
      "another": 2651,
      "##atus": 2652,
      "##ittal": 2653,
      "##acent": 2654,
      "asc": 2655,
      "##agittal": 2656,
      "testis": 2657,
      "initial": 2658,
      "hematoma": 2659,
      "cer": 2660,
      "pred": 2661,
      "##atur": 2662,
      "orth": 2663,
      "appearance": 2664,
      "##uctions": 2665,
      "##position": 2666,
      "diver": 2667,
      "continuous": 2668,
      "thorough": 2669,
      "branches": 2670,
      "currently": 2671,
      "rou": 2672,
      "##enc": 2673,
      "##ata": 2674,
      "exce": 2675,
      "move": 2676,
      "flexion": 2677,
      "clamped": 2678,
      "##roscope": 2679,
      "towards": 2680,
      "alignment": 2681,
      "75": 2682,
      "cou": 2683,
      "eight": 2684,
      "##che": 2685,
      "##leg": 2686,
      "insuff": 2687,
      "primary": 2688,
      "equal": 2689,
      "mitral": 2690,
      "part": 2691,
      "round": 2692,
      "##aces": 2693,
      "urinary": 2694,
      "specimens": 2695,
      "diffuse": 2696,
      "ms": 2697,
      "oroph": 2698,
      "##aqu": 2699,
      "extending": 2700,
      "checked": 2701,
      "gauge": 2702,
      "alternatives": 2703,
      "bri": 2704,
      "stim": 2705,
      "##rill": 2706,
      "leak": 2707,
      "consis": 2708,
      "muscul": 2709,
      "diagnostic": 2710,
      "completion": 2711,
      "remained": 2712,
      "away": 2713,
      "facet": 2714,
      "bac": 2715,
      "eth": 2716,
      "extra": 2717,
      "gentle": 2718,
      "temperature": 2719,
      "five": 2720,
      "las": 2721,
      "psych": 2722,
      "sagittal": 2723,
      "##aring": 2724,
      "##anx": 2725,
      "##uria": 2726,
      "cardio": 2727,
      "shortness": 2728,
      "allowed": 2729,
      "peritoneal": 2730,
      "oriented": 2731,
      "answ": 2732,
      "brief": 2733,
      "28": 2734,
      "cough": 2735,
      "ras": 2736,
      "ster": 2737,
      "##ipped": 2738,
      "##jective": 2739,
      "##ings": 2740,
      "diag": 2741,
      "consid": 2742,
      "##ostomy": 2743,
      "angle": 2744,
      "hydro": 2745,
      "gastric": 2746,
      "ter": 2747,
      "##baum": 2748,
      "few": 2749,
      "longus": 2750,
      "superiorly": 2751,
      "limited": 2752,
      "marginal": 2753,
      "peritoneum": 2754,
      "diagonal": 2755,
      "ic": 2756,
      "##yed": 2757,
      "thigh": 2758,
      "##vix": 2759,
      "testing": 2760,
      "##traction": 2761,
      "circumfer": 2762,
      "penis": 2763,
      "delivered": 2764,
      "cervix": 2765,
      "stern": 2766,
      "##of": 2767,
      "##active": 2768,
      "surround": 2769,
      "subcl": 2770,
      "dressings": 2771,
      "headaches": 2772,
      "l3": 2773,
      "##ient": 2774,
      "##ones": 2775,
      "##ism": 2776,
      "##used": 2777,
      "##trib": 2778,
      "ische": 2779,
      "##ills": 2780,
      "examined": 2781,
      "bru": 2782,
      "denied": 2783,
      "##ephalic": 2784,
      "every": 2785,
      "bipolar": 2786,
      "oxy": 2787,
      "08": 2788,
      "them": 2789,
      "##reg": 2790,
      "tooth": 2791,
      "##ides": 2792,
      "comb": 2793,
      "defic": 2794,
      "clot": 2795,
      "intens": 2796,
      "underlying": 2797,
      "agre": 2798,
      "metzen": 2799,
      "occasion": 2800,
      "nodes": 2801,
      "complaint": 2802,
      "avoid": 2803,
      "cartilage": 2804,
      "phalanx": 2805,
      "metzenbaum": 2806,
      "tong": 2807,
      "##head": 2808,
      "bronchoscope": 2809,
      "exposure": 2810,
      "abcd": 2811,
      "##avian": 2812,
      "subclavian": 2813,
      "six": 2814,
      "##ume": 2815,
      "pulled": 2816,
      "image": 2817,
      "##angeal": 2818,
      "physic": 2819,
      "esophageal": 2820,
      "osteophy": 2821,
      "bur": 2822,
      "came": 2823,
      "sched": 2824,
      "arthroscop": 2825,
      "period": 2826,
      "numbness": 2827,
      "half": 2828,
      "emp": 2829,
      "held": 2830,
      "liv": 2831,
      "mr": 2832,
      "##hea": 2833,
      "interval": 2834,
      "overlying": 2835,
      "measuring": 2836,
      "known": 2837,
      "grossly": 2838,
      "pericard": 2839,
      "ausc": 2840,
      "ful": 2841,
      "xyl": 2842,
      "##rum": 2843,
      "ann": 2844,
      "pers": 2845,
      "signal": 2846,
      "angiogram": 2847,
      "appropriately": 2848,
      "myocard": 2849,
      "simple": 2850,
      "palpable": 2851,
      "fluoroscopic": 2852,
      "separate": 2853,
      "xylocaine": 2854,
      "fol": 2855,
      "you": 2856,
      "##ches": 2857,
      "##icul": 2858,
      "##aden": 2859,
      "stool": 2860,
      "endoscopy": 2861,
      "parents": 2862,
      "reduced": 2863,
      "knife": 2864,
      "repeat": 2865,
      "lith": 2866,
      "##sh": 2867,
      "##cious": 2868,
      "stage": 2869,
      "shunt": 2870,
      "tract": 2871,
      "interp": 2872,
      "instructions": 2873,
      "probably": 2874,
      "inspection": 2875,
      "retractor": 2876,
      "replacement": 2877,
      "benign": 2878,
      "cardiovascular": 2879,
      "cn": 2880,
      "##side": 2881,
      "##heral": 2882,
      "##ester": 2883,
      "experi": 2884,
      "stone": 2885,
      "##agm": 2886,
      "fraction": 2887,
      "eyes": 2888,
      "wires": 2889,
      "effect": 2890,
      "peripheral": 2891,
      "fair": 2892,
      "ronge": 2893,
      "##rac": 2894,
      "##hal": 2895,
      "##arding": 2896,
      "##ropl": 2897,
      "##igure": 2898,
      "undergo": 2899,
      "coord": 2900,
      "please": 2901,
      "retrograde": 2902,
      "septum": 2903,
      "apparent": 2904,
      "##uncti": 2905,
      "oropharynx": 2906,
      "ejection": 2907,
      "##zed": 2908,
      "told": 2909,
      "reconstr": 2910,
      "flo": 2911,
      "intrac": 2912,
      "meth": 2913,
      "calib": 2914,
      "nonc": 2915,
      "inferiorly": 2916,
      "teeth": 2917,
      "monitoring": 2918,
      "groin": 2919,
      "##ietal": 2920,
      "murmur": 2921,
      "echocard": 2922,
      "##ty": 2923,
      "##titis": 2924,
      "apex": 2925,
      "rays": 2926,
      "##terized": 2927,
      "duoden": 2928,
      "punct": 2929,
      "tongue": 2930,
      "face": 2931,
      "##ging": 2932,
      "##ocular": 2933,
      "##ially": 2934,
      "median": 2935,
      "ens": 2936,
      "irreg": 2937,
      "fluids": 2938,
      "curved": 2939,
      "routine": 2940,
      "answered": 2941,
      "irregular": 2942,
      "fund": 2943,
      "##aver": 2944,
      "##mia": 2945,
      "##ware": 2946,
      "##ising": 2947,
      "inch": 2948,
      "##arr": 2949,
      "stated": 2950,
      "apprec": 2951,
      "##allow": 2952,
      "recently": 2953,
      "decre": 2954,
      "edge": 2955,
      "loop": 2956,
      "views": 2957,
      "scrotal": 2958,
      "epidural": 2959,
      "##roplasty": 2960,
      "here": 2961,
      "##urred": 2962,
      "posterolateral": 2963,
      "spont": 2964,
      "attached": 2965,
      "mildly": 2966,
      "##avicular": 2967,
      "sharply": 2968,
      "micro": 2969,
      "delivery": 2970,
      "cranial": 2971,
      "spontaneous": 2972,
      "derm": 2973,
      "figure": 2974,
      "ho": 2975,
      "##tes": 2976,
      "sequ": 2977,
      "conscious": 2978,
      "femur": 2979,
      "lymphaden": 2980,
      "debrid": 2981,
      "understood": 2982,
      "surrounding": 2983,
      "roll": 2984,
      "caud": 2985,
      "visit": 2986,
      "dura": 2987,
      "airway": 2988,
      "laboratory": 2989,
      "bif": 2990,
      "focal": 2991,
      "compartment": 2992,
      "obes": 2993,
      "limb": 2994,
      "proceeded": 2995,
      "saf": 2996,
      "auscultation": 2997,
      "debridement": 2998,
      "##ostal": 2999,
      "##oper": 3000,
      "height": 3001,
      "stay": 3002,
      "pregn": 3003,
      "##othe": 3004,
      "enh": 3005,
      "enter": 3006,
      "sterilely": 3007,
      "poor": 3008,
      "respon": 3009,
      "margin": 3010,
      "extensive": 3011,
      "piec": 3012,
      "management": 3013,
      "lens": 3014,
      "water": 3015,
      "##lip": 3016,
      "##uation": 3017,
      "##esoph": 3018,
      "plane": 3019,
      "##ocol": 3020,
      "coag": 3021,
      "digital": 3022,
      "wedge": 3023,
      "23": 3024,
      "father": 3025,
      "disposition": 3026,
      "stro": 3027,
      "##ands": 3028,
      "dissect": 3029,
      "reflux": 3030,
      "dressed": 3031,
      "arterial": 3032,
      "number": 3033,
      "healthy": 3034,
      "pupils": 3035,
      "agreed": 3036,
      "physician": 3037,
      "myocardial": 3038,
      "bp": 3039,
      "##arth": 3040,
      "preoperatively": 3041,
      "chol": 3042,
      "##omegaly": 3043,
      "consultation": 3044,
      "vers": 3045,
      "transp": 3046,
      "induced": 3047,
      "##ountered": 3048,
      "radicul": 3049,
      "modified": 3050,
      "cutting": 3051,
      "##kele": 3052,
      "measured": 3053,
      "involving": 3054,
      "potential": 3055,
      "cerebral": 3056,
      "intersp": 3057,
      "membran": 3058,
      "##aque": 3059,
      "floor": 3060,
      "##esophageal": 3061,
      "lv": 3062,
      "tur": 3063,
      "##iate": 3064,
      "##sc": 3065,
      "##bital": 3066,
      "##acted": 3067,
      "##ompl": 3068,
      "hemo": 3069,
      "station": 3070,
      "aff": 3071,
      "units": 3072,
      "polyps": 3073,
      "gave": 3074,
      "radiation": 3075,
      "check": 3076,
      "umbilical": 3077,
      "oxygen": 3078,
      "hx": 3079,
      "pus": 3080,
      "##eur": 3081,
      "##li": 3082,
      "aneur": 3083,
      "##omfort": 3084,
      "least": 3085,
      "intubated": 3086,
      "##izontal": 3087,
      "metast": 3088,
      "differ": 3089,
      "encountered": 3090,
      "horizontal": 3091,
      "##cation": 3092,
      "##card": 3093,
      "##zing": 3094,
      "esmar": 3095,
      "details": 3096,
      "swallow": 3097,
      "fiber": 3098,
      "tibia": 3099,
      "forearm": 3100,
      "axillary": 3101,
      "actually": 3102,
      "ascending": 3103,
      "duodenum": 3104,
      "esmarch": 3105,
      "coun": 3106,
      "csf": 3107,
      "pm": 3108,
      "pou": 3109,
      "##ym": 3110,
      "##function": 3111,
      "##ither": 3112,
      "##aculum": 3113,
      "##uled": 3114,
      "spondyl": 3115,
      "options": 3116,
      "somew": 3117,
      "regurg": 3118,
      "required": 3119,
      "combination": 3120,
      "aneurysm": 3121,
      "regurgitation": 3122,
      "21": 3123,
      "bar": 3124,
      "bag": 3125,
      "mentioned": 3126,
      "##sangu": 3127,
      "##hat": 3128,
      "##onia": 3129,
      "exsangu": 3130,
      "displac": 3131,
      "##aged": 3132,
      "intermit": 3133,
      "movement": 3134,
      "decided": 3135,
      "ports": 3136,
      "measures": 3137,
      "demonstrates": 3138,
      "hemorrhage": 3139,
      "pulses": 3140,
      "echocardiogram": 3141,
      "pregnancy": 3142,
      "intermitt": 3143,
      "36": 3144,
      "hole": 3145,
      "la": 3146,
      "rup": 3147,
      "x2": 3148,
      "##pec": 3149,
      "##atin": 3150,
      "add": 3151,
      "feet": 3152,
      "##ought": 3153,
      "linear": 3154,
      "monitored": 3155,
      "recommendations": 3156,
      "hardware": 3157,
      "maintained": 3158,
      "##aryngeal": 3159,
      "bunion": 3160,
      "conjuncti": 3161,
      "anesthetized": 3162,
      "except": 3163,
      "hydroce": 3164,
      "35": 3165,
      "satur": 3166,
      "tension": 3167,
      "##bing": 3168,
      "articular": 3169,
      "##ectoral": 3170,
      "##agia": 3171,
      "delt": 3172,
      "palpation": 3173,
      "prepared": 3174,
      "500": 3175,
      "mom": 3176,
      "tone": 3177,
      "clips": 3178,
      "chart": 3179,
      "##anged": 3180,
      "##ervative": 3181,
      "levels": 3182,
      "successful": 3183,
      "versus": 3184,
      "pouch": 3185,
      "mac": 3186,
      "serv": 3187,
      "##ison": 3188,
      "##achy": 3189,
      "##apular": 3190,
      "##uded": 3191,
      "fascial": 3192,
      "ligaments": 3193,
      "loo": 3194,
      "cystoscopy": 3195,
      "separated": 3196,
      "foramen": 3197,
      "either": 3198,
      "fist": 3199,
      "tal": 3200,
      "##ton": 3201,
      "##icus": 3202,
      "##vers": 3203,
      "scler": 3204,
      "parietal": 3205,
      "##umbil": 3206,
      "pole": 3207,
      "pleas": 3208,
      "probe": 3209,
      "protocol": 3210,
      "umbilicus": 3211,
      "cereb": 3212,
      "resolved": 3213,
      "response": 3214,
      "somewhat": 3215,
      "26": 3216,
      "burs": 3217,
      "max": 3218,
      "ves": 3219,
      "##for": 3220,
      "iss": 3221,
      "##ages": 3222,
      "##raft": 3223,
      "testic": 3224,
      "axial": 3225,
      "perfusion": 3226,
      "pacu": 3227,
      "concern": 3228,
      "##legia": 3229,
      "##umbilical": 3230,
      "dim": 3231,
      "fut": 3232,
      "##lasty": 3233,
      "##ish": 3234,
      "##etab": 3235,
      "##ubation": 3236,
      "discussion": 3237,
      "guid": 3238,
      "complaints": 3239,
      "collateral": 3240,
      "padded": 3241,
      "slowly": 3242,
      "inflammation": 3243,
      "biceps": 3244,
      "remainder": 3245,
      "future": 3246,
      "doc": 3247,
      "##tration": 3248,
      "##amer": 3249,
      "##stomy": 3250,
      "medias": 3251,
      "##ograp": 3252,
      "flat": 3253,
      "wounds": 3254,
      "ventricul": 3255,
      "clamps": 3256,
      "loose": 3257,
      "obstructive": 3258,
      "thickening": 3259,
      "begin": 3260,
      "provided": 3261,
      "culture": 3262,
      "##ten": 3263,
      "##ren": 3264,
      "##jor": 3265,
      "##ero": 3266,
      "prod": 3267,
      "approach": 3268,
      "atrium": 3269,
      "major": 3270,
      "series": 3271,
      "origin": 3272,
      "appreciated": 3273,
      "radiculopathy": 3274,
      "##cardia": 3275,
      "c3": 3276,
      "food": 3277,
      "foss": 3278,
      "hiat": 3279,
      "nons": 3280,
      "pron": 3281,
      "##ested": 3282,
      "spr": 3283,
      "twice": 3284,
      "necess": 3285,
      "rotation": 3286,
      "confirm": 3287,
      "patellar": 3288,
      "attempted": 3289,
      "prominent": 3290,
      "anatom": 3291,
      "outpatient": 3292,
      "thoroughly": 3293,
      "fossa": 3294,
      "vit": 3295,
      "warm": 3296,
      "##uted": 3297,
      "stem": 3298,
      "##aphen": 3299,
      "traum": 3300,
      "##ograft": 3301,
      "event": 3302,
      "##ologist": 3303,
      "arthritis": 3304,
      "improvement": 3305,
      "meniscus": 3306,
      "baby": 3307,
      "prescription": 3308,
      "pleasant": 3309,
      "pds": 3310,
      "sem": 3311,
      "venti": 3312,
      "##iotomy": 3313,
      "##olus": 3314,
      "neural": 3315,
      "chond": 3316,
      "chief": 3317,
      "endoscope": 3318,
      "fibrill": 3319,
      "percutaneous": 3320,
      "gentleman": 3321,
      "scheduled": 3322,
      "pap": 3323,
      "their": 3324,
      "person": 3325,
      "tric": 3326,
      "trig": 3327,
      "##mental": 3328,
      "infar": 3329,
      "##ipital": 3330,
      "##enting": 3331,
      "elected": 3332,
      "assist": 3333,
      "veins": 3334,
      "respons": 3335,
      "dysph": 3336,
      "problem": 3337,
      "included": 3338,
      "progressive": 3339,
      "cleaned": 3340,
      "consisting": 3341,
      "transported": 3342,
      "exsanguin": 3343,
      "testicle": 3344,
      "liqu": 3345,
      "rub": 3346,
      "vel": 3347,
      "##iation": 3348,
      "tob": 3349,
      "traction": 3350,
      "removing": 3351,
      "discomfort": 3352,
      "##achial": 3353,
      "hypertrophy": 3354,
      "adenopathy": 3355,
      "stitches": 3356,
      "inflammatory": 3357,
      "neurovascular": 3358,
      "27": 3359,
      "ess": 3360,
      "pig": 3361,
      "##set": 3362,
      "##hic": 3363,
      "##eric": 3364,
      "##amine": 3365,
      "intubation": 3366,
      "##ubitus": 3367,
      "impacted": 3368,
      "decubitus": 3369,
      "gluc": 3370,
      "depression": 3371,
      "diarr": 3372,
      "increasing": 3373,
      "membranes": 3374,
      "##aphenous": 3375,
      "diarrhea": 3376,
      "lin": 3377,
      "shaft": 3378,
      "coronal": 3379,
      "identify": 3380,
      "presentation": 3381,
      "diagnosed": 3382,
      "joints": 3383,
      "speculum": 3384,
      "became": 3385,
      "curv": 3386,
      "cultures": 3387,
      "liquid": 3388,
      "panc": 3389,
      "rib": 3390,
      "##aking": 3391,
      "drin": 3392,
      "discectomy": 3393,
      "obtain": 3394,
      "worse": 3395,
      "enlarg": 3396,
      "volume": 3397,
      "exercise": 3398,
      "fully": 3399,
      "bifur": 3400,
      "interspace": 3401,
      "pancre": 3402,
      "03": 3403,
      "29": 3404,
      "96": 3405,
      "data": 3406,
      "estab": 3407,
      "tor": 3408,
      "##vent": 3409,
      "##omed": 3410,
      "##ecting": 3411,
      "thought": 3412,
      "stop": 3413,
      "selec": 3414,
      "color": 3415,
      "direction": 3416,
      "contact": 3417,
      "##ocket": 3418,
      "scrotum": 3419,
      "tonsil": 3420,
      "bandage": 3421,
      "hallux": 3422,
      "adjacent": 3423,
      "orthop": 3424,
      "movements": 3425,
      "caliber": 3426,
      "establ": 3427,
      "dominant": 3428,
      "et": 3429,
      "hct": 3430,
      "sk": 3431,
      "sure": 3432,
      "anch": 3433,
      "conges": 3434,
      "##changed": 3435,
      "##aker": 3436,
      "dra": 3437,
      "subd": 3438,
      "locking": 3439,
      "portions": 3440,
      "dilat": 3441,
      "retractors": 3442,
      "palate": 3443,
      "apparently": 3444,
      "concl": 3445,
      "ovar": 3446,
      "connected": 3447,
      "glenoid": 3448,
      "lithotomy": 3449,
      "rongeur": 3450,
      "lymphadenopathy": 3451,
      "rap": 3452,
      "self": 3453,
      "vent": 3454,
      "##ipp": 3455,
      "##dr": 3456,
      "##bri": 3457,
      "took": 3458,
      "asked": 3459,
      "##ctomy": 3460,
      "impair": 3461,
      "induction": 3462,
      "##cyst": 3463,
      "cruc": 3464,
      "repaired": 3465,
      "cannulated": 3466,
      "cauterized": 3467,
      "freed": 3468,
      "##phragm": 3469,
      "##rophic": 3470,
      "attempt": 3471,
      "cholecyst": 3472,
      "filled": 3473,
      "interpret": 3474,
      "veloc": 3475,
      "cast": 3476,
      "drop": 3477,
      "mand": 3478,
      "pt": 3479,
      "pocket": 3480,
      "rule": 3481,
      "sch": 3482,
      "sides": 3483,
      "saphenous": 3484,
      "wid": 3485,
      "##lor": 3486,
      "##asia": 3487,
      "##atitis": 3488,
      "##trical": 3489,
      "compar": 3490,
      "verified": 3491,
      "whee": 3492,
      "location": 3493,
      "significantly": 3494,
      "dysfunction": 3495,
      "packed": 3496,
      "splint": 3497,
      "died": 3498,
      "fit": 3499,
      "volar": 3500,
      "##acrom": 3501,
      "##acco": 3502,
      "retin": 3503,
      "cortical": 3504,
      "conservative": 3505,
      "obtaining": 3506,
      "##tex": 3507,
      "regarding": 3508,
      "hemostat": 3509,
      "deflated": 3510,
      "microscope": 3511,
      "holding": 3512,
      "thoracic": 3513,
      "mcg": 3514,
      "episodes": 3515,
      "seizure": 3516,
      "fairly": 3517,
      "pmh": 3518,
      "intermittent": 3519,
      "fibrillation": 3520,
      "tobacco": 3521,
      "72": 3522,
      "fh": 3523,
      "od": 3524,
      "antr": 3525,
      "##omies": 3526,
      "beh": 3527,
      "##emaker": 3528,
      "record": 3529,
      "##ometr": 3530,
      "moist": 3531,
      "meticul": 3532,
      "##odyn": 3533,
      "bronchoscopy": 3534,
      "stapler": 3535,
      "margins": 3536,
      "starting": 3537,
      "periosteal": 3538,
      "enhanc": 3539,
      "dysphagia": 3540,
      "meticulous": 3541,
      "aut": 3542,
      "purs": 3543,
      "t2": 3544,
      "tachy": 3545,
      "##eg": 3546,
      "##tring": 3547,
      "preserved": 3548,
      "gram": 3549,
      "decision": 3550,
      "radiograp": 3551,
      "patch": 3552,
      "evaluate": 3553,
      "center": 3554,
      "rotated": 3555,
      "respirations": 3556,
      "septal": 3557,
      "##oplasty": 3558,
      "wave": 3559,
      "stroke": 3560,
      "##keletal": 3561,
      "fistula": 3562,
      "issues": 3563,
      "cruciate": 3564,
      "07": 3565,
      "fet": 3566,
      "norm": 3567,
      "##tail": 3568,
      "referred": 3569,
      "reactive": 3570,
      "meds": 3571,
      "interc": 3572,
      "obtuse": 3573,
      "##ioplasty": 3574,
      "directly": 3575,
      "aspirated": 3576,
      "components": 3577,
      "question": 3578,
      "symmetric": 3579,
      "mobilized": 3580,
      "curet": 3581,
      "musculos": 3582,
      "noncon": 3583,
      "fhx": 3584,
      "##den": 3585,
      "##vities": 3586,
      "##alangeal": 3587,
      "##ording": 3588,
      "##icture": 3589,
      "isol": 3590,
      "##ocr": 3591,
      "incontin": 3592,
      "##formation": 3593,
      "resting": 3594,
      "verb": 3595,
      "imping": 3596,
      "needs": 3597,
      "##ophalangeal": 3598,
      "bronchus": 3599,
      "bluntly": 3600,
      "thickness": 3601,
      "perforation": 3602,
      "insufflated": 3603,
      "wind": 3604,
      "##acu": 3605,
      "read": 3606,
      "##uck": 3607,
      "surge": 3608,
      "##assium": 3609,
      "moved": 3610,
      "epig": 3611,
      "neurop": 3612,
      "potassium": 3613,
      "pacemaker": 3614,
      "title": 3615,
      "enlargement": 3616,
      "musculoskeletal": 3617,
      "larg": 3618,
      "sum": 3619,
      "##loc": 3620,
      "##less": 3621,
      "##rog": 3622,
      "##lection": 3623,
      "hearing": 3624,
      "##ocephalic": 3625,
      "comes": 3626,
      "org": 3627,
      "sperm": 3628,
      "shi": 3629,
      "underne": 3630,
      "overall": 3631,
      "suprap": 3632,
      "cryst": 3633,
      "cyt": 3634,
      "metatarsophalangeal": 3635,
      "guidance": 3636,
      "cholecystectomy": 3637,
      "incontinence": 3638,
      "underneath": 3639,
      "bile": 3640,
      "l1": 3641,
      "lav": 3642,
      "nurs": 3643,
      "vide": 3644,
      "##lo": 3645,
      "##ena": 3646,
      "##enced": 3647,
      "##let": 3648,
      "##acer": 3649,
      "##ulin": 3650,
      "##ulmonary": 3651,
      "prof": 3652,
      "##ottic": 3653,
      "arch": 3654,
      "shx": 3655,
      "endometr": 3656,
      "deepened": 3657,
      "neurological": 3658,
      "keep": 3659,
      "stimulation": 3660,
      "conclusion": 3661,
      "interpretation": 3662,
      "window": 3663,
      "camer": 3664,
      "##ister": 3665,
      "##oman": 3666,
      "plaque": 3667,
      "perman": 3668,
      "resect": 3669,
      "cold": 3670,
      "cleared": 3671,
      "solid": 3672,
      "accompl": 3673,
      "pneumonia": 3674,
      "finally": 3675,
      "hemorrhoids": 3676,
      "nucleus": 3677,
      "##brile": 3678,
      "camera": 3679,
      "nature": 3680,
      "##terectomy": 3681,
      "protr": 3682,
      "##oce": 3683,
      "##thing": 3684,
      "##esthesia": 3685,
      "##ibond": 3686,
      "chem": 3687,
      "elevation": 3688,
      "instructed": 3689,
      "getting": 3690,
      "retroflex": 3691,
      "failed": 3692,
      "worsening": 3693,
      "##ences": 3694,
      "ethibond": 3695,
      "##otherapy": 3696,
      "essentially": 3697,
      "pigtail": 3698,
      "got": 3699,
      "##lavicular": 3700,
      "##por": 3701,
      "##inc": 3702,
      "##entan": 3703,
      "##odies": 3704,
      "##astoid": 3705,
      "carb": 3706,
      "subjective": 3707,
      "acetab": 3708,
      "hemodyn": 3709,
      "endoscopic": 3710,
      "##raumbilical": 3711,
      "pattern": 3712,
      "herniated": 3713,
      "adequately": 3714,
      "prone": 3715,
      "holes": 3716,
      "immediate": 3717,
      "instrumentation": 3718,
      "seizures": 3719,
      "cardiopulmonary": 3720,
      "04": 3721,
      "a1": 3722,
      "mi": 3723,
      "py": 3724,
      "pit": 3725,
      "rim": 3726,
      "##tress": 3727,
      "##lix": 3728,
      "##uit": 3729,
      "##cys": 3730,
      "##vision": 3731,
      "##erus": 3732,
      "##atous": 3733,
      "reaction": 3734,
      "state": 3735,
      "diaphragm": 3736,
      "repres": 3737,
      "particular": 3738,
      "contents": 3739,
      "related": 3740,
      "support": 3741,
      "cells": 3742,
      "increase": 3743,
      "humerus": 3744,
      "mixture": 3745,
      "purul": 3746,
      "crystall": 3747,
      "dental": 3748,
      "fentan": 3749,
      "nond": 3750,
      "opp": 3751,
      "tap": 3752,
      "##acral": 3753,
      "prote": 3754,
      "disorder": 3755,
      "veress": 3756,
      "located": 3757,
      "##opharynx": 3758,
      "capsul": 3759,
      "pneumatic": 3760,
      "kerlix": 3761,
      "cardioplegia": 3762,
      "ulceration": 3763,
      "conjunctiva": 3764,
      "fentanyl": 3765,
      "37": 3766,
      "bodies": 3767,
      "woman": 3768,
      "##ffic": 3769,
      "##atch": 3770,
      "disloc": 3771,
      "deter": 3772,
      "instil": 3773,
      "approximate": 3774,
      "pressures": 3775,
      "fractures": 3776,
      "emg": 3777,
      "know": 3778,
      "hydr": 3779,
      "smoking": 3780,
      "peak": 3781,
      "bulging": 3782,
      "possibly": 3783,
      "##scapular": 3784,
      "spondylosis": 3785,
      "accomplished": 3786,
      "instilled": 3787,
      "gas": 3788,
      "l2": 3789,
      "oss": 3790,
      "##ee": 3791,
      "##eous": 3792,
      "##az": 3793,
      "##iness": 3794,
      "##ices": 3795,
      "contrac": 3796,
      "drained": 3797,
      "##illar": 3798,
      "subacrom": 3799,
      "##ervation": 3800,
      "labrum": 3801,
      "illic": 3802,
      "allergic": 3803,
      "debrided": 3804,
      "workup": 3805,
      "think": 3806,
      "mattress": 3807,
      "maximum": 3808,
      "##glob": 3809,
      "analysis": 3810,
      "trauma": 3811,
      "summ": 3812,
      "300": 3813,
      "fro": 3814,
      "hr": 3815,
      "pending": 3816,
      "##bear": 3817,
      "##mm": 3818,
      "##rotic": 3819,
      "##uls": 3820,
      "##iable": 3821,
      "##stem": 3822,
      "##ocy": 3823,
      "infant": 3824,
      "##ept": 3825,
      "parap": 3826,
      "tuberc": 3827,
      "150": 3828,
      "contour": 3829,
      "cyan": 3830,
      "advised": 3831,
      "diast": 3832,
      "2007": 3833,
      "exploration": 3834,
      "mucosal": 3835,
      "provide": 3836,
      "gauze": 3837,
      "iii": 3838,
      "persistent": 3839,
      "hiatal": 3840,
      "glucose": 3841,
      "selective": 3842,
      "video": 3843,
      "gently": 3844,
      "##eum": 3845,
      "touch": 3846,
      "##anted": 3847,
      "noti": 3848,
      "outside": 3849,
      "legs": 3850,
      "expose": 3851,
      "drilled": 3852,
      "memory": 3853,
      "possibility": 3854,
      "covered": 3855,
      "antegrade": 3856,
      "necessary": 3857,
      "fetal": 3858,
      "permanent": 3859,
      "gut": 3860,
      "jud": 3861,
      "pump": 3862,
      "sam": 3863,
      "##iency": 3864,
      "##ae": 3865,
      "##tially": 3866,
      "anter": 3867,
      "##aract": 3868,
      "##ica": 3869,
      "##osacral": 3870,
      "##aco": 3871,
      "##ura": 3872,
      "beats": 3873,
      "##vertebral": 3874,
      "subscapular": 3875,
      "##ively": 3876,
      "##ullary": 3877,
      "palpated": 3878,
      "flaps": 3879,
      "episode": 3880,
      "cataract": 3881,
      "consider": 3882,
      "fundus": 3883,
      "orthoped": 3884,
      "purses": 3885,
      "protein": 3886,
      "##cler": 3887,
      "##ged": 3888,
      "##orb": 3889,
      "##atively": 3890,
      "##ayed": 3891,
      "seal": 3892,
      "chills": 3893,
      "##peritone": 3894,
      "postan": 3895,
      "partially": 3896,
      "occurred": 3897,
      "calcified": 3898,
      "penile": 3899,
      "require": 3900,
      "axis": 3901,
      "##aumatic": 3902,
      "progress": 3903,
      "involved": 3904,
      "##ovitis": 3905,
      "reports": 3906,
      "attachments": 3907,
      "occasional": 3908,
      "turb": 3909,
      "##ography": 3910,
      "velocity": 3911,
      "surgeon": 3912,
      "cod": 3913,
      "gi": 3914,
      "##tively": 3915,
      "ance": 3916,
      "atrophy": 3917,
      "foramin": 3918,
      "##ember": 3919,
      "even": 3920,
      "indic": 3921,
      "agg": 3922,
      "angioplasty": 3923,
      "planned": 3924,
      "elevator": 3925,
      "herniation": 3926,
      "boy": 3927,
      "prolong": 3928,
      "sinuses": 3929,
      "activities": 3930,
      "##iety": 3931,
      "ileum": 3932,
      "periosteum": 3933,
      "fragment": 3934,
      "obesity": 3935,
      "displaced": 3936,
      "service": 3937,
      "##globin": 3938,
      "pursestring": 3939,
      "ancef": 3940,
      "rr": 3941,
      "##asm": 3942,
      "anemia": 3943,
      "##isted": 3944,
      "thread": 3945,
      "onset": 3946,
      "distrib": 3947,
      "flank": 3948,
      "butt": 3949,
      "elec": 3950,
      "stricture": 3951,
      "identification": 3952,
      "##mined": 3953,
      "ambul": 3954,
      "changed": 3955,
      "dysp": 3956,
      "tempor": 3957,
      "smooth": 3958,
      "mesent": 3959,
      "condyle": 3960,
      "ampl": 3961,
      "intensive": 3962,
      "xx": 3963,
      "##iasis": 3964,
      "##icitis": 3965,
      "proph": 3966,
      "##ety": 3967,
      "discontin": 3968,
      "espec": 3969,
      "seconds": 3970,
      "epic": 3971,
      "feeding": 3972,
      "gland": 3973,
      "phot": 3974,
      "circumc": 3975,
      "calcification": 3976,
      "probable": 3977,
      "199": 3978,
      "##uspid": 3979,
      "bulb": 3980,
      "split": 3981,
      "repeated": 3982,
      "cholecys": 3983,
      "foraminal": 3984,
      "rash": 3985,
      "reconstruction": 3986,
      "ensure": 3987,
      "cyanosis": 3988,
      "prophyl": 3989,
      "especially": 3990,
      "05": 3991,
      "bund": 3992,
      "dop": 3993,
      "ears": 3994,
      "hys": 3995,
      "lot": 3996,
      "mas": 3997,
      "sister": 3998,
      "alread": 3999,
      "catheters": 4000,
      "working": 4001,
      "aspirin": 4002,
      "feels": 4003,
      "feeling": 4004,
      "t12": 4005,
      "gradient": 4006,
      "pericardial": 4007,
      "metastatic": 4008,
      "saturation": 4009,
      "school": 4010,
      "verbal": 4011,
      "already": 4012,
      "98": 4013,
      "cephal": 4014,
      "pectoral": 4015,
      "ta": 4016,
      "##kn": 4017,
      "##tium": 4018,
      "##roch": 4019,
      "thus": 4020,
      "come": 4021,
      "signed": 4022,
      "indicated": 4023,
      "##othor": 4024,
      "atten": 4025,
      "depend": 4026,
      "abnormality": 4027,
      "dilator": 4028,
      "arthroplasty": 4029,
      "hematuria": 4030,
      "early": 4031,
      "humeral": 4032,
      "anatomy": 4033,
      "attachment": 4034,
      "psychiatric": 4035,
      "safety": 4036,
      "pronator": 4037,
      "frozen": 4038,
      "##bearing": 4039,
      "prolonged": 4040,
      "cholecystitis": 4041,
      "ace": 4042,
      "dos": 4043,
      "ice": 4044,
      "phen": 4045,
      "##bly": 4046,
      "##here": 4047,
      "##articular": 4048,
      "##osed": 4049,
      "##anic": 4050,
      "ste": 4051,
      "stones": 4052,
      "dex": 4053,
      "##artos": 4054,
      "married": 4055,
      "supr": 4056,
      "##time": 4057,
      "flexible": 4058,
      "cannot": 4059,
      "fixed": 4060,
      "urethral": 4061,
      "replaced": 4062,
      "occlusion": 4063,
      "laminectomy": 4064,
      "nuclear": 4065,
      "deficits": 4066,
      "puncture": 4067,
      "hemoglobin": 4068,
      "rupture": 4069,
      "established": 4070,
      "normocephalic": 4071,
      "illicit": 4072,
      "summary": 4073,
      "best": 4074,
      "ec": 4075,
      "eros": 4076,
      "##enol": 4077,
      "##rose": 4078,
      "toes": 4079,
      "##ecal": 4080,
      "##verted": 4081,
      "orbital": 4082,
      "tracheal": 4083,
      "postp": 4084,
      "##ological": 4085,
      "tendons": 4086,
      "##elvic": 4087,
      "defin": 4088,
      "appendicitis": 4089,
      "fourth": 4090,
      "vagina": 4091,
      "fingers": 4092,
      "arthroscopic": 4093,
      "annular": 4094,
      "decrease": 4095,
      "protrusion": 4096,
      "99": 4097,
      "bi": 4098,
      "gang": 4099,
      "har": 4100,
      "oment": 4101,
      "sust": 4102,
      "trem": 4103,
      "##ii": 4104,
      "##ebrile": 4105,
      "##renal": 4106,
      "##ters": 4107,
      "##teric": 4108,
      "though": 4109,
      "revision": 4110,
      "##ulate": 4111,
      "appoint": 4112,
      "adrenal": 4113,
      "shape": 4114,
      "afebrile": 4115,
      "hemostatic": 4116,
      "glob": 4117,
      "osteot": 4118,
      "mayo": 4119,
      "magn": 4120,
      "orifice": 4121,
      "malign": 4122,
      "halluc": 4123,
      "frequent": 4124,
      "infarction": 4125,
      "exsanguinated": 4126,
      "intercostal": 4127,
      "impingement": 4128,
      "osseous": 4129,
      "orthopedic": 4130,
      "postanesthesia": 4131,
      "omentum": 4132,
      "48": 4133,
      "55": 4134,
      "om": 4135,
      "wife": 4136,
      "##fl": 4137,
      "antic": 4138,
      "##opelvic": 4139,
      "placing": 4140,
      "infusion": 4141,
      "painful": 4142,
      "desire": 4143,
      "##ronch": 4144,
      "co2": 4145,
      "according": 4146,
      "adenoid": 4147,
      "gastrostomy": 4148,
      "diverticul": 4149,
      "ischemic": 4150,
      "bifurcation": 4151,
      "isolated": 4152,
      "cbc": 4153,
      "xero": 4154,
      "##ioma": 4155,
      "##bol": 4156,
      "##mad": 4157,
      "##gus": 4158,
      "##yy": 4159,
      "##itrac": 4160,
      "##lymp": 4161,
      "devi": 4162,
      "club": 4163,
      "acrom": 4164,
      "constr": 4165,
      "secre": 4166,
      "pull": 4167,
      "many": 4168,
      "eyel": 4169,
      "crease": 4170,
      "pediatric": 4171,
      "##ammary": 4172,
      "digits": 4173,
      "breathing": 4174,
      "mesh": 4175,
      "gastroesophageal": 4176,
      "coumad": 4177,
      "bacitrac": 4178,
      "beginning": 4179,
      "hemodynamic": 4180,
      "xeroform": 4181,
      "coumadin": 4182,
      "bacitracin": 4183,
      "31": 4184,
      "cup": 4185,
      "nic": 4186,
      "sti": 4187,
      "tape": 4188,
      "##oke": 4189,
      "##ases": 4190,
      "information": 4191,
      "##icles": 4192,
      "##eline": 4193,
      "refer": 4194,
      "inches": 4195,
      "track": 4196,
      "infraumbilical": 4197,
      "cortex": 4198,
      "collection": 4199,
      "##aug": 4200,
      "gallop": 4201,
      "debris": 4202,
      "topical": 4203,
      "lives": 4204,
      "experienced": 4205,
      "tricuspid": 4206,
      "responses": 4207,
      "ventral": 4208,
      "antrum": 4209,
      "nursing": 4210,
      "purulent": 4211,
      "subacromial": 4212,
      "threaded": 4213,
      "distribution": 4214,
      "cephalad": 4215,
      "oint": 4216,
      "olymp": 4217,
      "rig": 4218,
      "wide": 4219,
      "yester": 4220,
      "##ih": 4221,
      "##oh": 4222,
      "##ry": 4223,
      "##arily": 4224,
      "##estinal": 4225,
      "##elding": 4226,
      "##hthal": 4227,
      "plus": 4228,
      "try": 4229,
      "notch": 4230,
      "obtur": 4231,
      "complained": 4232,
      "calor": 4233,
      "refr": 4234,
      "create": 4235,
      "atraumatic": 4236,
      "measure": 4237,
      "subsequent": 4238,
      "relatively": 4239,
      "protected": 4240,
      "matter": 4241,
      "symmetrical": 4242,
      "seems": 4243,
      "fragments": 4244,
      "deltoid": 4245,
      "subdural": 4246,
      "tachycardia": 4247,
      "##ocele": 4248,
      "diastolic": 4249,
      "subscapularis": 4250,
      "doppl": 4251,
      "##augh": 4252,
      "ointment": 4253,
      "olympus": 4254,
      "yesterday": 4255,
      "4x": 4256,
      "dens": 4257,
      "tack": 4258,
      "tymp": 4259,
      "##pite": 4260,
      "##uce": 4261,
      "##erob": 4262,
      "##osition": 4263,
      "rein": 4264,
      "##ady": 4265,
      "plat": 4266,
      "start": 4267,
      "clipped": 4268,
      "##illin": 4269,
      "notes": 4270,
      "caus": 4271,
      "##plate": 4272,
      "despite": 4273,
      "soak": 4274,
      "awake": 4275,
      "accident": 4276,
      "requested": 4277,
      "avail": 4278,
      "##amedullary": 4279,
      "different": 4280,
      "hydrocele": 4281,
      "stopp": 4282,
      "mandible": 4283,
      "organ": 4284,
      "suprapubic": 4285,
      "cytology": 4286,
      "obturator": 4287,
      "##erobic": 4288,
      "ahead": 4289,
      "jug": 4290,
      "mental": 4291,
      "nor": 4292,
      "say": 4293,
      "##asian": 4294,
      "##ithiasis": 4295,
      "##eled": 4296,
      "##adol": 4297,
      "onto": 4298,
      "perine": 4299,
      "##ucasian": 4300,
      "##ylor": 4301,
      "subm": 4302,
      "caucasian": 4303,
      "grand": 4304,
      "paral": 4305,
      "parasp": 4306,
      "manip": 4307,
      "##axis": 4308,
      "benefit": 4309,
      "commun": 4310,
      "protect": 4311,
      "hypere": 4312,
      "injections": 4313,
      "doubly": 4314,
      "suggestive": 4315,
      "thoracotomy": 4316,
      "fevers": 4317,
      "##ttes": 4318,
      "couple": 4319,
      "ischemia": 4320,
      "anatomic": 4321,
      "rigid": 4322,
      "doppler": 4323,
      "cert": 4324,
      "eeg": 4325,
      "mane": 4326,
      "##vt": 4327,
      "too": 4328,
      "webr": 4329,
      "postop": 4330,
      "ends": 4331,
      "whether": 4332,
      "cleans": 4333,
      "creatin": 4334,
      "intraocular": 4335,
      "explored": 4336,
      "relief": 4337,
      "digit": 4338,
      "t11": 4339,
      "rhin": 4340,
      "children": 4341,
      "fold": 4342,
      "circumcision": 4343,
      "eyelid": 4344,
      "certain": 4345,
      "maneu": 4346,
      "webril": 4347,
      "creatinine": 4348,
      "aug": 4349,
      "bal": 4350,
      "dried": 4351,
      "dict": 4352,
      "lif": 4353,
      "ps": 4354,
      "pylor": 4355,
      "rod": 4356,
      "sized": 4357,
      "wra": 4358,
      "##ca": 4359,
      "##rocedure": 4360,
      "suff": 4361,
      "coming": 4362,
      "neph": 4363,
      "incident": 4364,
      "shaver": 4365,
      "##ability": 4366,
      "transfer": 4367,
      "generalized": 4368,
      "needles": 4369,
      "clearly": 4370,
      "##herent": 4371,
      "points": 4372,
      "##aresis": 4373,
      "moderately": 4374,
      "exposing": 4375,
      "appendectomy": 4376,
      "retraction": 4377,
      "stabil": 4378,
      "filling": 4379,
      "brother": 4380,
      "mixed": 4381,
      "osteophytes": 4382,
      "mediastinal": 4383,
      "acetabulum": 4384,
      "appointment": 4385,
      "clubbing": 4386,
      "daugh": 4387,
      "eom": 4388,
      "kg": 4389,
      "pp": 4390,
      "tyl": 4391,
      "##iosis": 4392,
      "##uter": 4393,
      "##ational": 4394,
      "##iding": 4395,
      "prop": 4396,
      "projection": 4397,
      "##uments": 4398,
      "prevent": 4399,
      "##romal": 4400,
      "resist": 4401,
      "enough": 4402,
      "genital": 4403,
      "correction": 4404,
      "##rown": 4405,
      "ellip": 4406,
      "improve": 4407,
      "trocars": 4408,
      "liters": 4409,
      "bulk": 4410,
      "groove": 4411,
      "kerr": 4412,
      "preparation": 4413,
      "termin": 4414,
      "hook": 4415,
      "etc": 4416,
      "radiograph": 4417,
      "secretions": 4418,
      "4x4": 4419,
      "eg": 4420,
      "eating": 4421,
      "eto": 4422,
      "gia": 4423,
      "ting": 4424,
      "uih": 4425,
      "vocal": 4426,
      "##da": 4427,
      "##oe": 4428,
      "##get": 4429,
      "##rex": 4430,
      "##acia": 4431,
      "distraction": 4432,
      "preop": 4433,
      "##inear": 4434,
      "abuse": 4435,
      "##ifications": 4436,
      "uns": 4437,
      "##osteal": 4438,
      "showing": 4439,
      "bleed": 4440,
      "refill": 4441,
      "capillary": 4442,
      "colonoscope": 4443,
      "occipital": 4444,
      "hypot": 4445,
      "morph": 4446,
      "drugs": 4447,
      "walk": 4448,
      "##ictures": 4449,
      "terminal": 4450,
      "rashes": 4451,
      "dilatation": 4452,
      "pectoralis": 4453,
      "harves": 4454,
      "paraspinal": 4455,
      "cleansed": 4456,
      "wrapped": 4457,
      "etoh": 4458,
      "uihc": 4459,
      "06": 4460,
      "38": 4461,
      "68": 4462,
      "97": 4463,
      "aid": 4464,
      "c2": 4465,
      "dl": 4466,
      "fati": 4467,
      "foc": 4468,
      "give": 4469,
      "selding": 4470,
      "##ohy": 4471,
      "##kes": 4472,
      "##als": 4473,
      "anx": 4474,
      "anterolateral": 4475,
      "instab": 4476,
      "##itten": 4477,
      "##rous": 4478,
      "##terine": 4479,
      "sud": 4480,
      "##aptic": 4481,
      "ophthal": 4482,
      "##mog": 4483,
      "recurr": 4484,
      "chlor": 4485,
      "allograft": 4486,
      "instit": 4487,
      "brachial": 4488,
      "complaining": 4489,
      "gives": 4490,
      "radical": 4491,
      "glans": 4492,
      "instruments": 4493,
      "written": 4494,
      "craniotomy": 4495,
      "conduction": 4496,
      "lamina": 4497,
      "walking": 4498,
      "##ranial": 4499,
      "living": 4500,
      "caudal": 4501,
      "trigg": 4502,
      "crystalloid": 4503,
      "code": 4504,
      "available": 4505,
      "fatig": 4506,
      "seldinger": 4507,
      "instability": 4508,
      "34": 4509,
      "eng": 4510,
      "jack": 4511,
      "name": 4512,
      "squ": 4513,
      "##ued": 4514,
      "##ave": 4515,
      "##erous": 4516,
      "##icillin": 4517,
      "##optic": 4518,
      "leaf": 4519,
      "prec": 4520,
      "##aps": 4521,
      "##ocecal": 4522,
      "##ialysis": 4523,
      "medium": 4524,
      "##entricular": 4525,
      "ulcer": 4526,
      "symptomatic": 4527,
      "operations": 4528,
      "2008": 4529,
      "prostatic": 4530,
      "calculated": 4531,
      "laparoscope": 4532,
      "belie": 4533,
      "pink": 4534,
      "flush": 4535,
      "ileocecal": 4536,
      "ulcers": 4537,
      "maxillary": 4538,
      "retinaculum": 4539,
      "lavage": 4540,
      "pyel": 4541,
      "##peritoneal": 4542,
      "sustained": 4543,
      "soaked": 4544,
      "sudden": 4545,
      "cric": 4546,
      "cob": 4547,
      "fil": 4548,
      "##skin": 4549,
      "##nis": 4550,
      "##rub": 4551,
      "##yond": 4552,
      "##12": 4553,
      "thecal": 4554,
      "##leen": 4555,
      "really": 4556,
      "athe": 4557,
      "step": 4558,
      "beyond": 4559,
      "##iring": 4560,
      "spaces": 4561,
      "spleen": 4562,
      "adne": 4563,
      "char": 4564,
      "corne": 4565,
      "consist": 4566,
      "##angiogram": 4567,
      "fibroid": 4568,
      "continues": 4569,
      "foreskin": 4570,
      "occluded": 4571,
      "excessive": 4572,
      "suspic": 4573,
      "piece": 4574,
      "fiberoptic": 4575,
      "drawn": 4576,
      "gangl": 4577,
      "desires": 4578,
      "stiff": 4579,
      "tylenol": 4580,
      "jackson": 4581,
      "adnex": 4582,
      "dup": 4583,
      "pan": 4584,
      "wanted": 4585,
      "##aff": 4586,
      "##most": 4587,
      "##face": 4588,
      "##erol": 4589,
      "##tig": 4590,
      "##enic": 4591,
      "##osity": 4592,
      "##igr": 4593,
      "exud": 4594,
      "never": 4595,
      "##illes": 4596,
      "infected": 4597,
      "vertical": 4598,
      "minor": 4599,
      "intramedullary": 4600,
      "tested": 4601,
      "123": 4602,
      "apnea": 4603,
      "demerol": 4604,
      "load": 4605,
      "cords": 4606,
      "malle": 4607,
      "markedly": 4608,
      "murmurs": 4609,
      "ovary": 4610,
      "snare": 4611,
      "clots": 4612,
      "couns": 4613,
      "laid": 4614,
      "chondromal": 4615,
      "rapid": 4616,
      "chemotherapy": 4617,
      "daughter": 4618,
      "kerrison": 4619,
      "chondromalacia": 4620,
      "bot": 4621,
      "dam": 4622,
      "mammary": 4623,
      "sul": 4624,
      "tried": 4625,
      "##elect": 4626,
      "##mor": 4627,
      "##ense": 4628,
      "##opia": 4629,
      "progn": 4630,
      "##occ": 4631,
      "comfort": 4632,
      "scrub": 4633,
      "inside": 4634,
      "gran": 4635,
      "strong": 4636,
      "tumors": 4637,
      "regions": 4638,
      "requiring": 4639,
      "laparotomy": 4640,
      "staple": 4641,
      "testes": 4642,
      "palm": 4643,
      "roots": 4644,
      "formation": 4645,
      "stability": 4646,
      "orientation": 4647,
      "prominences": 4648,
      "concerns": 4649,
      "document": 4650,
      "ventil": 4651,
      "turbin": 4652,
      "amplitud": 4653,
      "reinfor": 4654,
      "stopped": 4655,
      "dy": 4656,
      "dro": 4657,
      "fine": 4658,
      "grow": 4659,
      "making": 4660,
      "qd": 4661,
      "s2": 4662,
      "##oam": 4663,
      "##atellar": 4664,
      "##osyn": 4665,
      "##ilinear": 4666,
      "##usive": 4667,
      "##utory": 4668,
      "stain": 4669,
      "arr": 4670,
      "##illa": 4671,
      "medic": 4672,
      "allis": 4673,
      "##ipl": 4674,
      "undyed": 4675,
      "##kins": 4676,
      "closing": 4677,
      "##intestinal": 4678,
      "entry": 4679,
      "mean": 4680,
      "americ": 4681,
      "swe": 4682,
      "look": 4683,
      "sensiti": 4684,
      "clinically": 4685,
      "achilles": 4686,
      "surfaces": 4687,
      "functional": 4688,
      "ostium": 4689,
      "gastrointestinal": 4690,
      "scarring": 4691,
      "frequency": 4692,
      "icu": 4693,
      "arthroscopy": 4694,
      "##operitone": 4695,
      "curvilinear": 4696,
      "curette": 4697,
      "shift": 4698,
      "attenuation": 4699,
      "##ronchial": 4700,
      "jugular": 4701,
      "recurrence": 4702,
      "eti": 4703,
      "nour": 4704,
      "pc": 4705,
      "##iary": 4706,
      "##etic": 4707,
      "##oked": 4708,
      "##but": 4709,
      "##ril": 4710,
      "##hinc": 4711,
      "tow": 4712,
      "##ules": 4713,
      "##ulted": 4714,
      "##idal": 4715,
      "##uricular": 4716,
      "standing": 4717,
      "almost": 4718,
      "sphinc": 4719,
      "cava": 4720,
      "abduct": 4721,
      "index": 4722,
      "pulley": 4723,
      "imm": 4724,
      "##roscler": 4725,
      "##echan": 4726,
      "phaco": 4727,
      "observed": 4728,
      "handed": 4729,
      "membrane": 4730,
      "affect": 4731,
      "impairment": 4732,
      "prophylaxis": 4733,
      "maneuver": 4734,
      "nourished": 4735,
      "sphincter": 4736,
      "diz": 4737,
      "gelf": 4738,
      "lying": 4739,
      "nit": 4740,
      "pda": 4741,
      "sternal": 4742,
      "vena": 4743,
      "wished": 4744,
      "watch": 4745,
      "##self": 4746,
      "##cm": 4747,
      "##gone": 4748,
      "##ycin": 4749,
      "##lets": 4750,
      "##ulus": 4751,
      "##opian": 4752,
      "##umed": 4753,
      "##umeral": 4754,
      "asthm": 4755,
      "##och": 4756,
      "##gether": 4757,
      "clav": 4758,
      "##oneph": 4759,
      "##xime": 4760,
      "sublux": 4761,
      "insulin": 4762,
      "undergone": 4763,
      "##ibular": 4764,
      "##plo": 4765,
      "necrotic": 4766,
      "knees": 4767,
      "apical": 4768,
      "esophagitis": 4769,
      "syncop": 4770,
      "tonsillar": 4771,
      "amput": 4772,
      "waiting": 4773,
      "concerned": 4774,
      "fallopian": 4775,
      "325": 4776,
      "lines": 4777,
      "skull": 4778,
      "pituit": 4779,
      "##known": 4780,
      "atheroscler": 4781,
      "damage": 4782,
      "american": 4783,
      "towel": 4784,
      "dizz": 4785,
      "gelfoam": 4786,
      "01": 4787,
      "date": 4788,
      "dvt": 4789,
      "ky": 4790,
      "pene": 4791,
      "ram": 4792,
      "##ioc": 4793,
      "##tomy": 4794,
      "##utr": 4795,
      "##cell": 4796,
      "##wal": 4797,
      "##eds": 4798,
      "##isp": 4799,
      "stret": 4800,
      "alb": 4801,
      "##apse": 4802,
      "##ching": 4803,
      "true": 4804,
      "objective": 4805,
      "##ants": 4806,
      "##hyroid": 4807,
      "unknown": 4808,
      "hemip": 4809,
      "entr": 4810,
      "visco": 4811,
      "##overtebral": 4812,
      "electro": 4813,
      "embol": 4814,
      "lumbosacral": 4815,
      "attempts": 4816,
      "kerat": 4817,
      "setting": 4818,
      "circumferential": 4819,
      "osteophyte": 4820,
      "intracranial": 4821,
      "swallowing": 4822,
      "dimension": 4823,
      "##ipple": 4824,
      "larger": 4825,
      "dyspnea": 4826,
      "nicely": 4827,
      "kyph": 4828,
      "62": 4829,
      "bir": 4830,
      "ect": 4831,
      "laryng": 4832,
      "laryngeal": 4833,
      "nail": 4834,
      "troch": 4835,
      "x3": 4836,
      "##ering": 4837,
      "together": 4838,
      "##ann": 4839,
      "staff": 4840,
      "forward": 4841,
      "##emoral": 4842,
      "spect": 4843,
      "arms": 4844,
      "score": 4845,
      "afric": 4846,
      "cause": 4847,
      "extent": 4848,
      "postoperatively": 4849,
      "##abond": 4850,
      "strap": 4851,
      "retaining": 4852,
      "##hesis": 4853,
      "tests": 4854,
      "##aving": 4855,
      "discuss": 4856,
      "cyc": 4857,
      "worked": 4858,
      "hypertrophic": 4859,
      "administration": 4860,
      "injuries": 4861,
      "##urgical": 4862,
      "understands": 4863,
      "implantation": 4864,
      "##tributory": 4865,
      "dermabond": 4866,
      "entering": 4867,
      "coagulation": 4868,
      "##omedial": 4869,
      "noncontributory": 4870,
      "tubercle": 4871,
      "aggressive": 4872,
      "xxx": 4873,
      "says": 4874,
      "4x4s": 4875,
      "corneal": 4876,
      "##operitoneum": 4877,
      "etiology": 4878,
      "asthma": 4879,
      "african": 4880,
      "51": 4881,
      "basis": 4882,
      "tms": 4883,
      "##iology": 4884,
      "##oin": 4885,
      "##rest": 4886,
      "##rectomy": 4887,
      "##att": 4888,
      "##iter": 4889,
      "##atible": 4890,
      "thumb": 4891,
      "##idym": 4892,
      "##version": 4893,
      "##aped": 4894,
      "##ella": 4895,
      "compatible": 4896,
      "evacu": 4897,
      "front": 4898,
      "transf": 4899,
      "evident": 4900,
      "meatus": 4901,
      "2005": 4902,
      "thickened": 4903,
      "expected": 4904,
      "involvement": 4905,
      "epididym": 4906,
      "prednis": 4907,
      "pericardium": 4908,
      "drops": 4909,
      "wheezing": 4910,
      "behind": 4911,
      "neuropathy": 4912,
      "represent": 4913,
      "##othorax": 4914,
      "tremor": 4915,
      "tympanic": 4916,
      "anxiety": 4917,
      "sensitivity": 4918,
      "74": 4919,
      "91": 4920,
      "94": 4921,
      "dartos": 4922,
      "migr": 4923,
      "sound": 4924,
      "wrap": 4925,
      "##lithiasis": 4926,
      "##back": 4927,
      "##uffic": 4928,
      "##ria": 4929,
      "##aved": 4930,
      "##hib": 4931,
      "##hoid": 4932,
      "##inatus": 4933,
      "##lear": 4934,
      "##actic": 4935,
      "##tral": 4936,
      "incor": 4937,
      "spinous": 4938,
      "adaptic": 4939,
      "##une": 4940,
      "insuffic": 4941,
      "positioning": 4942,
      "complication": 4943,
      "fibers": 4944,
      "pleura": 4945,
      "intraarticular": 4946,
      "##aspinatus": 4947,
      "arthrosis": 4948,
      "##ommod": 4949,
      "cystoscope": 4950,
      "hands": 4951,
      "accommod": 4952,
      "penrose": 4953,
      "pneumoperitoneum": 4954,
      "quadrants": 4955,
      "cholelithiasis": 4956,
      "primarily": 4957,
      "heparinized": 4958,
      "circumferentially": 4959,
      "bursa": 4960,
      "ovarian": 4961,
      "noticed": 4962,
      "hysterectomy": 4963,
      "##ployed": 4964,
      "00": 4965,
      "57": 4966,
      "58": 4967,
      "bue": 4968,
      "bolus": 4969,
      "kling": 4970,
      "lack": 4971,
      "mill": 4972,
      "ptt": 4973,
      "rather": 4974,
      "tsh": 4975,
      "##tor": 4976,
      "##ched": 4977,
      "##hex": 4978,
      "##orn": 4979,
      "##urney": 4980,
      "##ocl": 4981,
      "##iral": 4982,
      "##izer": 4983,
      "chord": 4984,
      "carina": 4985,
      "consult": 4986,
      "muscular": 4987,
      "break": 4988,
      "##emporal": 4989,
      "observation": 4990,
      "beneath": 4991,
      "prosthesis": 4992,
      "nasopharynx": 4993,
      "palmar": 4994,
      "tracheostomy": 4995,
      "encour": 4996,
      "tenaculum": 4997,
      "meniscal": 4998,
      "seemed": 4999,
      "enhancement": 5000,
      "dependent": 5001,
      "refractory": 5002,
      "causing": 5003,
      "tingling": 5004,
      "prognosis": 5005,
      "clavicle": 5006,
      "prednisone": 5007,
      "hom": 5008,
      "mam": 5009,
      "oxime": 5010,
      "vib": 5011,
      "##ject": 5012,
      "inhal": 5013,
      "##arcinoma": 5014,
      "heav": 5015,
      "##pping": 5016,
      "##ots": 5017,
      "##ocle": 5018,
      "spacer": 5019,
      "##ylene": 5020,
      "transvers": 5021,
      "bring": 5022,
      "##ysma": 5023,
      "elements": 5024,
      "biliary": 5025,
      "agree": 5026,
      "excl": 5027,
      "125": 5028,
      "mucous": 5029,
      "arterios": 5030,
      "dysarth": 5031,
      "team": 5032,
      "triple": 5033,
      "broad": 5034,
      "thrombosis": 5035,
      "##lectomy": 5036,
      "hepat": 5037,
      "hepatic": 5038,
      "laser": 5039,
      "congestion": 5040,
      "epigastric": 5041,
      "bundle": 5042,
      "platysma": 5043,
      "fatigue": 5044,
      "pituitary": 5045,
      "59": 5046,
      "65": 5047,
      "84": 5048,
      "cot": 5049,
      "fell": 5050,
      "iod": 5051,
      "mechan": 5052,
      "t8": 5053,
      "vo": 5054,
      "##ield": 5055,
      "##cill": 5056,
      "##vac": 5057,
      "##erosity": 5058,
      "##asal": 5059,
      "##asper": 5060,
      "##idemia": 5061,
      "##urface": 5062,
      "exchanged": 5063,
      "asa": 5064,
      "shaped": 5065,
      "hemisp": 5066,
      "grasper": 5067,
      "marking": 5068,
      "tuberosity": 5069,
      "difficulti": 5070,
      "calf": 5071,
      "pharynx": 5072,
      "dilation": 5073,
      "sedated": 5074,
      "calcium": 5075,
      "distended": 5076,
      "fresh": 5077,
      "earli": 5078,
      "sitting": 5079,
      "defects": 5080,
      "mci": 5081,
      "suspected": 5082,
      "anchor": 5083,
      "sampl": 5084,
      "genitalia": 5085,
      "egd": 5086,
      "mammog": 5087,
      "difficulties": 5088,
      "earlier": 5089,
      "41": 5090,
      "400": 5091,
      "64": 5092,
      "aud": 5093,
      "burn": 5094,
      "gest": 5095,
      "kept": 5096,
      "nipple": 5097,
      "qual": 5098,
      "sour": 5099,
      "##oag": 5100,
      "##hab": 5101,
      "##heres": 5102,
      "##ises": 5103,
      "tomor": 5104,
      "##ectively": 5105,
      "reins": 5106,
      "rehab": 5107,
      "##lycer": 5108,
      "extraction": 5109,
      "##otomies": 5110,
      "placent": 5111,
      "spread": 5112,
      "optic": 5113,
      "adherent": 5114,
      "scarp": 5115,
      "happ": 5116,
      "paracent": 5117,
      "locally": 5118,
      "specific": 5119,
      "weighted": 5120,
      "laparoscopy": 5121,
      "breasts": 5122,
      "radius": 5123,
      "peg": 5124,
      "maintain": 5125,
      "called": 5126,
      "uncovertebral": 5127,
      "glenoh": 5128,
      "##ofemoral": 5129,
      "dislocation": 5130,
      "determined": 5131,
      "dexon": 5132,
      "hallucis": 5133,
      "resistance": 5134,
      "chordee": 5135,
      "tomorrow": 5136,
      "glenohumeral": 5137,
      "burr": 5138,
      "cig": 5139,
      "cephalic": 5140,
      "mood": 5141,
      "mening": 5142,
      "o2": 5143,
      "pow": 5144,
      "tin": 5145,
      "turn": 5146,
      "targ": 5147,
      "va": 5148,
      "##eti": 5149,
      "##surface": 5150,
      "##uity": 5151,
      "##tib": 5152,
      "ana": 5153,
      "##atal": 5154,
      "##ulitis": 5155,
      "##ida": 5156,
      "##iliac": 5157,
      "##ussion": 5158,
      "stoc": 5159,
      "##emuls": 5160,
      "trace": 5161,
      "##actable": 5162,
      "unfort": 5163,
      "undersurface": 5164,
      "endo": 5165,
      "discre": 5166,
      "indiv": 5167,
      "pulpos": 5168,
      "intractable": 5169,
      "dural": 5170,
      "electrod": 5171,
      "##weight": 5172,
      "mostly": 5173,
      "198": 5174,
      "hematocr": 5175,
      "recommendation": 5176,
      "varic": 5177,
      "output": 5178,
      "hepatitis": 5179,
      "extraocular": 5180,
      "compared": 5181,
      "retroflexed": 5182,
      "diverticulosis": 5183,
      "amplitude": 5184,
      "phacoemuls": 5185,
      "placenta": 5186,
      "scarpa": 5187,
      "target": 5188,
      "unfortun": 5189,
      "pulposus": 5190,
      "hematocrit": 5191,
      "09": 5192,
      "dd": 5193,
      "far": 5194,
      "gurney": 5195,
      "pill": 5196,
      "xii": 5197,
      "##off": 5198,
      "##la": 5199,
      "##lined": 5200,
      "##bread": 5201,
      "##mine": 5202,
      "##enomegaly": 5203,
      "##rotomy": 5204,
      "##esc": 5205,
      "##ush": 5206,
      "heel": 5207,
      "##odin": 5208,
      "##ocarcinoma": 5209,
      "perit": 5210,
      "neopl": 5211,
      "spell": 5212,
      "deployed": 5213,
      "blake": 5214,
      "shaved": 5215,
      "##mobil": 5216,
      "intervertebral": 5217,
      "unchanged": 5218,
      "##kinet": 5219,
      "vicodin": 5220,
      "amb": 5221,
      "firm": 5222,
      "##hysis": 5223,
      "depth": 5224,
      "demonstrate": 5225,
      "##itorum": 5226,
      "protection": 5227,
      "adenocarcinoma": 5228,
      "digitorum": 5229,
      "viable": 5230,
      "fingerbread": 5231,
      "reportedly": 5232,
      "drift": 5233,
      "raised": 5234,
      "divertic": 5235,
      "insufflation": 5236,
      "bruits": 5237,
      "stools": 5238,
      "##lipidemia": 5239,
      "successfully": 5240,
      "spray": 5241,
      "vitamin": 5242,
      "spermatic": 5243,
      "particularly": 5244,
      "osteotome": 5245,
      "suspicious": 5246,
      "dye": 5247,
      "##utrition": 5248,
      "birth": 5249,
      "insufficiency": 5250,
      "stockinet": 5251,
      "fingerbreadth": 5252,
      "67": 5253,
      "63": 5254,
      "78": 5255,
      "gag": 5256,
      "nur": 5257,
      "num": 5258,
      "pub": 5259,
      "rue": 5260,
      "##dom": 5261,
      "##berg": 5262,
      "##erted": 5263,
      "inr": 5264,
      "##omple": 5265,
      "##opic": 5266,
      "atelect": 5267,
      "commin": 5268,
      "incomple": 5269,
      "##thral": 5270,
      "comprom": 5271,
      "afo": 5272,
      "takes": 5273,
      "moving": 5274,
      "grav": 5275,
      "soon": 5276,
      "regard": 5277,
      "metal": 5278,
      "angled": 5279,
      "against": 5280,
      "##engthe": 5281,
      "nodule": 5282,
      "lymphatic": 5283,
      "cannulate": 5284,
      "calcane": 5285,
      "absent": 5286,
      "oscill": 5287,
      "tonsils": 5288,
      "sternocle": 5289,
      "sclerae": 5290,
      "foramina": 5291,
      "pylorus": 5292,
      "charac": 5293,
      "heavy": 5294,
      "cigare": 5295,
      "nurse": 5296,
      "numerous": 5297,
      "44": 5298,
      "76": 5299,
      "cine": 5300,
      "dipl": 5301,
      "lat": 5302,
      "mel": 5303,
      "stic": 5304,
      "void": 5305,
      "war": 5306,
      "##bile": 5307,
      "##45": 5308,
      "##itory": 5309,
      "##osite": 5310,
      "##omastoid": 5311,
      "##eling": 5312,
      "reached": 5313,
      "plavi": 5314,
      "##aming": 5315,
      "stre": 5316,
      "##chol": 5317,
      "compre": 5318,
      "##oneu": 5319,
      "##iphoid": 5320,
      "ligation": 5321,
      "smaller": 5322,
      "##auterine": 5323,
      "fired": 5324,
      "angio": 5325,
      "cuts": 5326,
      "dense": 5327,
      "lobes": 5328,
      "##onchi": 5329,
      "2003": 5330,
      "effort": 5331,
      "patellofemoral": 5332,
      "entirety": 5333,
      "##henoid": 5334,
      "suggesting": 5335,
      "baseline": 5336,
      "rhonchi": 5337,
      "original": 5338,
      "young": 5339,
      "effects": 5340,
      "coordination": 5341,
      "eventually": 5342,
      "widely": 5343,
      "profile": 5344,
      "carbohy": 5345,
      "hydroneph": 5346,
      "progressively": 5347,
      "buttock": 5348,
      "elliptical": 5349,
      "terminated": 5350,
      "ganglion": 5351,
      "documented": 5352,
      "incorpor": 5353,
      "diplopia": 5354,
      "plavix": 5355,
      "carbohydr": 5356,
      "cos": 5357,
      "cath": 5358,
      "ht": 5359,
      "pet": 5360,
      "popl": 5361,
      "rom": 5362,
      "som": 5363,
      "wbc": 5364,
      "##tec": 5365,
      "##oview": 5366,
      "##noid": 5367,
      "##asic": 5368,
      "inner": 5369,
      "##itations": 5370,
      "##idomastoid": 5371,
      "##trast": 5372,
      "extrac": 5373,
      "exiting": 5374,
      "plug": 5375,
      "##otemporal": 5376,
      "##odium": 5377,
      "##ellum": 5378,
      "##aying": 5379,
      "seated": 5380,
      "##ucing": 5381,
      "recall": 5382,
      "subgl": 5383,
      "acid": 5384,
      "acce": 5385,
      "evening": 5386,
      "syring": 5387,
      "##rementioned": 5388,
      "##achnoid": 5389,
      "intrauterine": 5390,
      "retained": 5391,
      "beta": 5392,
      "##posed": 5393,
      "##ulla": 5394,
      "##ares": 5395,
      "regional": 5396,
      "hospitalization": 5397,
      "myoview": 5398,
      "sacral": 5399,
      "distance": 5400,
      "healing": 5401,
      "smoke": 5402,
      "percussion": 5403,
      "##ysmal": 5404,
      "worsened": 5405,
      "sternum": 5406,
      "occasionally": 5407,
      "sequential": 5408,
      "looked": 5409,
      "ovaries": 5410,
      "mask": 5411,
      "organomegaly": 5412,
      "certainly": 5413,
      "power": 5414,
      "aforementioned": 5415,
      "oscillating": 5416,
      "sternocleidomastoid": 5417,
      "poplite": 5418,
      "cri": 5419,
      "fc": 5420,
      "gated": 5421,
      "land": 5422,
      "mys": 5423,
      "mach": 5424,
      "pictures": 5425,
      "rasp": 5426,
      "wet": 5427,
      "zy": 5428,
      "##eries": 5429,
      "##tigo": 5430,
      "##rotum": 5431,
      "##acic": 5432,
      "##idate": 5433,
      "selected": 5434,
      "compressive": 5435,
      "##uccessful": 5436,
      "##uccal": 5437,
      "trim": 5438,
      "hemisc": 5439,
      "vertigo": 5440,
      "##ondyle": 5441,
      "surgeries": 5442,
      "##orsion": 5443,
      "##uscular": 5444,
      "visible": 5445,
      "##obronchial": 5446,
      "hemostats": 5447,
      "guided": 5448,
      "planes": 5449,
      "neurom": 5450,
      "longer": 5451,
      "flexure": 5452,
      "gaze": 5453,
      "ankles": 5454,
      "hypo": 5455,
      "microscop": 5456,
      "serial": 5457,
      "diabetic": 5458,
      "effusions": 5459,
      "spontaneously": 5460,
      "sequentially": 5461,
      "obese": 5462,
      "conjunctivae": 5463,
      "judkins": 5464,
      "epicondyle": 5465,
      "unsuccessful": 5466,
      "stiffness": 5467,
      "malleolus": 5468,
      "dizziness": 5469,
      "oximetry": 5470,
      "dysarthria": 5471,
      "cotton": 5472,
      "hydronephrosis": 5473,
      "hemiscrotum": 5474,
      "42": 5475,
      "46": 5476,
      "66": 5477,
      "bim": 5478,
      "denti": 5479,
      "dull": 5480,
      "ham": 5481,
      "lost": 5482,
      "might": 5483,
      "pubic": 5484,
      "tent": 5485,
      "##ius": 5486,
      "##iant": 5487,
      "##pation": 5488,
      "##vit": 5489,
      "##acity": 5490,
      "##urethral": 5491,
      "##uration": 5492,
      "exact": 5493,
      "leaving": 5494,
      "##amous": 5495,
      "beach": 5496,
      "neur": 5497,
      "clon": 5498,
      "##ucer": 5499,
      "##ogast": 5500,
      "restric": 5501,
      "##entimeter": 5502,
      "hair": 5503,
      "find": 5504,
      "epile": 5505,
      "assisted": 5506,
      "aspects": 5507,
      "ilio": 5508,
      "aponeu": 5509,
      "nodules": 5510,
      "sacro": 5511,
      "relie": 5512,
      "esophagogast": 5513,
      "##apping": 5514,
      "serum": 5515,
      "##undant": 5516,
      "ordered": 5517,
      "speed": 5518,
      "tenosyn": 5519,
      "gradually": 5520,
      "drink": 5521,
      "postprocedure": 5522,
      "ventilator": 5523,
      "penetration": 5524,
      "##oagulation": 5525,
      "reinserted": 5526,
      "vault": 5527,
      "atelectasis": 5528,
      "syringe": 5529,
      "biman": 5530,
      "aponeurosis": 5531,
      "71": 5532,
      "79": 5533,
      "grou": 5534,
      "lma": 5535,
      "nares": 5536,
      "vig": 5537,
      "##ek": 5538,
      "##oarth": 5539,
      "##burg": 5540,
      "##rated": 5541,
      "##eness": 5542,
      "##arc": 5543,
      "atm": 5544,
      "perone": 5545,
      "trying": 5546,
      "##ogene": 5547,
      "interm": 5548,
      "##kinesis": 5549,
      "rob": 5550,
      "consti": 5551,
      "endplate": 5552,
      "##tinum": 5553,
      "dobut": 5554,
      "rise": 5555,
      "retention": 5556,
      "planning": 5557,
      "ultim": 5558,
      "glands": 5559,
      "valgus": 5560,
      "flexed": 5561,
      "delayed": 5562,
      "additionally": 5563,
      "polyeth": 5564,
      "tex": 5565,
      "tearing": 5566,
      "gastroscope": 5567,
      "##romegaly": 5568,
      "gets": 5569,
      "thyromegaly": 5570,
      "slowing": 5571,
      "portals": 5572,
      "steroid": 5573,
      "consideration": 5574,
      "irregularities": 5575,
      "pieces": 5576,
      "watertig": 5577,
      "mediastinum": 5578,
      "ventriculography": 5579,
      "assistance": 5580,
      "curvature": 5581,
      "pancreas": 5582,
      "endometrial": 5583,
      "##orbable": 5584,
      "deviation": 5585,
      "density": 5586,
      "instituted": 5587,
      "adnexal": 5588,
      "reinforced": 5589,
      "dobutamine": 5590,
      "polyethylene": 5591,
      "watertight": 5592,
      "43": 5593,
      "buccal": 5594,
      "cp": 5595,
      "cand": 5596,
      "job": 5597,
      "sodium": 5598,
      "tort": 5599,
      "ties": 5600,
      "##lan": 5601,
      "##uk": 5602,
      "##ki": 5603,
      "##atectomy": 5604,
      "alt": 5605,
      "incise": 5606,
      "normally": 5607,
      "caries": 5608,
      "interphal": 5609,
      "extend": 5610,
      "##neys": 5611,
      "dissecting": 5612,
      "inde": 5613,
      "suprac": 5614,
      "cooperative": 5615,
      "passage": 5616,
      "localized": 5617,
      "localization": 5618,
      "urg": 5619,
      "weightbearing": 5620,
      "pathologic": 5621,
      "receive": 5622,
      "sugar": 5623,
      "perfor": 5624,
      "meso": 5625,
      "understanding": 5626,
      "kidneys": 5627,
      "synovitis": 5628,
      "suggest": 5629,
      "basal": 5630,
      "intravenously": 5631,
      "resolution": 5632,
      "thrombus": 5633,
      "borderline": 5634,
      "consisted": 5635,
      "musculature": 5636,
      "coughing": 5637,
      "rolled": 5638,
      "bp1": 5639,
      "push": 5640,
      "cerebellar": 5641,
      "##flow": 5642,
      "squamous": 5643,
      "cricoid": 5644,
      "immun": 5645,
      "evacuated": 5646,
      "source": 5647,
      "unfortunately": 5648,
      "bimanual": 5649,
      "ultimately": 5650,
      "tortu": 5651,
      "56": 5652,
      "69": 5653,
      "82": 5654,
      "bard": 5655,
      "gre": 5656,
      "koc": 5657,
      "lis": 5658,
      "mastoid": 5659,
      "oc": 5660,
      "t9": 5661,
      "##ier": 5662,
      "##bit": 5663,
      "##focal": 5664,
      "##ertion": 5665,
      "##asive": 5666,
      "##enoscopy": 5667,
      "##ines": 5668,
      "##osen": 5669,
      "exertion": 5670,
      "plastic": 5671,
      "arri": 5672,
      "trend": 5673,
      "subst": 5674,
      "subperi": 5675,
      "evoked": 5676,
      "genit": 5677,
      "anything": 5678,
      "cancell": 5679,
      "sore": 5680,
      "immobil": 5681,
      "##timal": 5682,
      "120": 5683,
      "fractured": 5684,
      "remn": 5685,
      "cogn": 5686,
      "screening": 5687,
      "reduce": 5688,
      "elevate": 5689,
      "##ospheres": 5690,
      "arthrotomy": 5691,
      "said": 5692,
      "canals": 5693,
      "penicillin": 5694,
      "lesser": 5695,
      "allowing": 5696,
      "includes": 5697,
      "ductus": 5698,
      "hold": 5699,
      "vaginalis": 5700,
      "maximal": 5701,
      "predominant": 5702,
      "consciousness": 5703,
      "dissector": 5704,
      "comparison": 5705,
      "behavi": 5706,
      "questionable": 5707,
      "encouraged": 5708,
      "discrete": 5709,
      "phacoemulsification": 5710,
      "comprehen": 5711,
      "romberg": 5712,
      "epilep": 5713,
      "atmospheres": 5714,
      "33": 5715,
      "52": 5716,
      "86": 5717,
      "bmp": 5718,
      "cul": 5719,
      "emin": 5720,
      "ge": 5721,
      "harm": 5722,
      "mell": 5723,
      "own": 5724,
      "rhe": 5725,
      "son": 5726,
      "##oir": 5727,
      "##bid": 5728,
      "##ymme": 5729,
      "therap": 5730,
      "##acing": 5731,
      "##elen": 5732,
      "atrophic": 5733,
      "stents": 5734,
      "asymme": 5735,
      "prem": 5736,
      "arti": 5737,
      "##endix": 5738,
      "chair": 5739,
      "media": 5740,
      "reserv": 5741,
      "endoc": 5742,
      "endocr": 5743,
      "verte": 5744,
      "transpl": 5745,
      "desic": 5746,
      "tendin": 5747,
      "tolerate": 5748,
      "angina": 5749,
      "neutral": 5750,
      "capital": 5751,
      "##brachial": 5752,
      "systemic": 5753,
      "hospitalized": 5754,
      "pratt": 5755,
      "##inski": 5756,
      "##appendix": 5757,
      "neurology": 5758,
      "bones": 5759,
      "rhf": 5760,
      "antebrachial": 5761,
      "buried": 5762,
      "decreasing": 5763,
      "rupt": 5764,
      "ventriculogram": 5765,
      "discontinued": 5766,
      "trigger": 5767,
      "atherosclerotic": 5768,
      "trochan": 5769,
      "transfusion": 5770,
      "quality": 5771,
      "constipation": 5772,
      "mesoappendix": 5773,
      "mellitus": 5774,
      "rheum": 5775,
      "reservoir": 5776,
      "77": 5777,
      "85": 5778,
      "aph": 5779,
      "centimeter": 5780,
      "jr": 5781,
      "lengthe": 5782,
      "otitis": 5783,
      "rca": 5784,
      "tail": 5785,
      "wis": 5786,
      "##iol": 5787,
      "##sp": 5788,
      "##burn": 5789,
      "##ration": 5790,
      "##hicle": 5791,
      "##icted": 5792,
      "##osing": 5793,
      "##elastic": 5794,
      "revers": 5795,
      "##ocks": 5796,
      "sphenoid": 5797,
      "seeds": 5798,
      "blue": 5799,
      "presence": 5800,
      "abds": 5801,
      "graf": 5802,
      "##ourinary": 5803,
      "reposition": 5804,
      "vehicle": 5805,
      "remember": 5806,
      "aware": 5807,
      "##roduod": 5808,
      "calcifications": 5809,
      "development": 5810,
      "retroperitoneal": 5811,
      "healed": 5812,
      "pinned": 5813,
      "lighthead": 5814,
      "processes": 5815,
      "decompressed": 5816,
      "##oxin": 5817,
      "connection": 5818,
      "duodenal": 5819,
      "curett": 5820,
      "lasix": 5821,
      "emplo": 5822,
      "doctor": 5823,
      "enhancing": 5824,
      "spermat": 5825,
      "doses": 5826,
      "gallops": 5827,
      "radiographs": 5828,
      "believe": 5829,
      "exudate": 5830,
      "comfortable": 5831,
      "growth": 5832,
      "subluxation": 5833,
      "viscoelastic": 5834,
      "myself": 5835,
      "##ogeneous": 5836,
      "genitourinary": 5837,
      "cancellous": 5838,
      "desiccation": 5839,
      "##roduodenoscopy": 5840,
      "lightheaded": 5841,
      "02": 5842,
      "61": 5843,
      "olec": 5844,
      "##ej": 5845,
      "##band": 5846,
      "##aw": 5847,
      "##var": 5848,
      "##zes": 5849,
      "##atures": 5850,
      "##osph": 5851,
      "leuk": 5852,
      "plans": 5853,
      "shel": 5854,
      "appeti": 5855,
      "##riform": 5856,
      "wean": 5857,
      "spasm": 5858,
      "tra": 5859,
      "##illed": 5860,
      "##mentation": 5861,
      "##aginous": 5862,
      "corp": 5863,
      "events": 5864,
      "pains": 5865,
      "brady": 5866,
      "##istended": 5867,
      "parench": 5868,
      "iris": 5869,
      "giving": 5870,
      "quit": 5871,
      "testicular": 5872,
      "guard": 5873,
      "ligamentum": 5874,
      "neuros": 5875,
      "mainstem": 5876,
      "prostatectomy": 5877,
      "dysuria": 5878,
      "protamine": 5879,
      "morbid": 5880,
      "begun": 5881,
      "pneumothorax": 5882,
      "splin": 5883,
      "##resp": 5884,
      "formed": 5885,
      "lady": 5886,
      "horn": 5887,
      "##ranon": 5888,
      "##esterol": 5889,
      "limbus": 5890,
      "cholangiogram": 5891,
      "cholesterol": 5892,
      "talked": 5893,
      "flatt": 5894,
      "rubs": 5895,
      "ribs": 5896,
      "congestive": 5897,
      "autograft": 5898,
      "nondistended": 5899,
      "anticip": 5900,
      "perineum": 5901,
      "12345": 5902,
      "counseling": 5903,
      "scrubbed": 5904,
      "amputation": 5905,
      "samples": 5906,
      "auditory": 5907,
      "cigarettes": 5908,
      "stick": 5909,
      "popliteal": 5910,
      "microscopic": 5911,
      "sacroiliac": 5912,
      "tenosynovitis": 5913,
      "trendelen": 5914,
      "eminence": 5915,
      "transplant": 5916,
      "olecranon": 5917,
      "##ejun": 5918,
      "appetite": 5919,
      "trendelenburg": 5920,
      "600": 5921,
      "bid": 5922,
      "ef": 5923,
      "ling": 5924,
      "uv": 5925,
      "vacu": 5926,
      "##iform": 5927,
      "##patic": 5928,
      "##bits": 5929,
      "##body": 5930,
      "##hepatic": 5931,
      "##ales": 5932,
      "inverted": 5933,
      "##osine": 5934,
      "##anium": 5935,
      "real": 5936,
      "onc": 5937,
      "##aminal": 5938,
      "scat": 5939,
      "##seal": 5940,
      "subt": 5941,
      "subtle": 5942,
      "cornea": 5943,
      "##ubital": 5944,
      "transesophageal": 5945,
      "##ardiac": 5946,
      "overse": 5947,
      "parker": 5948,
      "lowered": 5949,
      "inject": 5950,
      "special": 5951,
      "duration": 5952,
      "osteoarth": 5953,
      "works": 5954,
      "##metic": 5955,
      "vitals": 5956,
      "pedicles": 5957,
      "adenosine": 5958,
      "##phalus": 5959,
      "brainstem": 5960,
      "infiltration": 5961,
      "##urgery": 5962,
      "segmental": 5963,
      "colli": 5964,
      "synthe": 5965,
      "maternal": 5966,
      "alternative": 5967,
      "ampulla": 5968,
      "properly": 5969,
      "titanium": 5970,
      "bruit": 5971,
      "barium": 5972,
      "bunionectomy": 5973,
      "hydrocephalus": 5974,
      "vestib": 5975,
      "draw": 5976,
      "rr1": 5977,
      "acromion": 5978,
      "hemodynamics": 5979,
      "harvested": 5980,
      "medicine": 5981,
      "syncope": 5982,
      "hemiparesis": 5983,
      "embolism": 5984,
      "arteriosus": 5985,
      "paracentesis": 5986,
      "compromise": 5987,
      "cosmetic": 5988,
      "htn": 5989,
      "subglottic": 5990,
      "hypokinesis": 5991,
      "esophagogastroduodenoscopy": 5992,
      "candidate": 5993,
      "kocher": 5994,
      "cognitive": 5995,
      "jr4": 5996,
      "curettage": 5997,
      "4s": 5998,
      "87": 5999,
      "aerobic": 6000,
      "ces": 6001,
      "don": 6002,
      "hus": 6003,
      "hot": 6004,
      "lips": 6005,
      "rales": 6006,
      "tie": 6007,
      "##ev": 6008,
      "##egr": 6009,
      "##leral": 6010,
      "##bar": 6011,
      "##uated": 6012,
      "##cher": 6013,
      "##gut": 6014,
      "##field": 6015,
      "wash": 6016,
      "##acaine": 6017,
      "those": 6018,
      "##aded": 6019,
      "##tritis": 6020,
      "lex": 6021,
      "pled": 6022,
      "stump": 6023,
      "cart": 6024,
      "anesthes": 6025,
      "infund": 6026,
      "mobile": 6027,
      "##artments": 6028,
      "preserve": 6029,
      "##eptic": 6030,
      "drapes": 6031,
      "massive": 6032,
      "fluent": 6033,
      "irrit": 6034,
      "##fully": 6035,
      "contusion": 6036,
      "crack": 6037,
      "capacity": 6038,
      "##arean": 6039,
      "2004": 6040,
      "##rodiss": 6041,
      "arteriotomy": 6042,
      "severely": 6043,
      "grafts": 6044,
      "triang": 6045,
      "130": 6046,
      "progression": 6047,
      "luminal": 6048,
      "longitudinally": 6049,
      "babinski": 6050,
      "catgut": 6051,
      "unclear": 6052,
      "terms": 6053,
      "dimin": 6054,
      "impaired": 6055,
      "wheezes": 6056,
      "erosion": 6057,
      "malignant": 6058,
      "ectopic": 6059,
      "epididymis": 6060,
      "iodine": 6061,
      "hemisphere": 6062,
      "interphalangeal": 6063,
      "subperiosteal": 6064,
      "verteb": 6065,
      "ruptured": 6066,
      "rheumat": 6067,
      "grafting": 6068,
      "scattered": 6069,
      "cesarean": 6070,
      "husband": 6071,
      "aver": 6072,
      "dual": 6073,
      "fast": 6074,
      "fiss": 6075,
      "gs": 6076,
      "gir": 6077,
      "jl": 6078,
      "nyst": 6079,
      "yyy": 6080,
      "##hec": 6081,
      "##tile": 6082,
      "inp": 6083,
      "##ites": 6084,
      "##icel": 6085,
      "##leb": 6086,
      "##ospl": 6087,
      "##actions": 6088,
      "##ulting": 6089,
      "##usted": 6090,
      "##tronic": 6091,
      "##otrex": 6092,
      "##rial": 6093,
      "black": 6094,
      "compartments": 6095,
      "##uctal": 6096,
      "scap": 6097,
      "rechec": 6098,
      "resulting": 6099,
      "fasting": 6100,
      "intermedi": 6101,
      "unresp": 6102,
      "evac": 6103,
      "closely": 6104,
      "consulted": 6105,
      "verif": 6106,
      "transition": 6107,
      "##ondral": 6108,
      "brach": 6109,
      "gray": 6110,
      "secure": 6111,
      "para": 6112,
      "tubal": 6113,
      "fluff": 6114,
      "supra": 6115,
      "visualize": 6116,
      "radio": 6117,
      "application": 6118,
      "containing": 6119,
      "cook": 6120,
      "respond": 6121,
      "tablets": 6122,
      "lobectomy": 6123,
      "##ances": 6124,
      "scissor": 6125,
      "140": 6126,
      "160": 6127,
      "cellulitis": 6128,
      "segments": 6129,
      "sept": 6130,
      "palsy": 6131,
      "packing": 6132,
      "##marks": 6133,
      "##going": 6134,
      "rhm": 6135,
      "gentamic": 6136,
      "tightened": 6137,
      "predicted": 6138,
      "ica": 6139,
      "intracardiac": 6140,
      "methotrex": 6141,
      "differential": 6142,
      "recorded": 6143,
      "resectoscope": 6144,
      "capsulotomy": 6145,
      "contractions": 6146,
      "indicating": 6147,
      "temporary": 6148,
      "mesentery": 6149,
      "pullback": 6150,
      "duplex": 6151,
      "hepatospl": 6152,
      "incomplete": 6153,
      "landmarks": 6154,
      "aphasia": 6155,
      "synthes": 6156,
      "yyyy": 6157,
      "unrespons": 6158,
      "gentamicin": 6159,
      "methotrexate": 6160,
      "hepatosplenomegaly": 6161,
      "53": 6162,
      "ao": 6163,
      "cel": 6164,
      "hamm": 6165,
      "lb": 6166,
      "pa": 6167,
      "t3": 6168,
      "vac": 6169,
      "x1": 6170,
      "##ea": 6171,
      "##lig": 6172,
      "##rh": 6173,
      "##ctal": 6174,
      "##inop": 6175,
      "##arterectomy": 6176,
      "tox": 6177,
      "##oure": 6178,
      "rever": 6179,
      "reach": 6180,
      "reverse": 6181,
      "##ulator": 6182,
      "##idine": 6183,
      "##opro": 6184,
      "##olid": 6185,
      "alone": 6186,
      "##thesis": 6187,
      "periv": 6188,
      "incising": 6189,
      "spat": 6190,
      "spur": 6191,
      "spastic": 6192,
      "class": 6193,
      "integr": 6194,
      "tran": 6195,
      "##unk": 6196,
      "flav": 6197,
      "##abs": 6198,
      "##abdom": 6199,
      "1000": 6200,
      "necrosis": 6201,
      "cry": 6202,
      "redness": 6203,
      "fibr": 6204,
      "become": 6205,
      "seeing": 6206,
      "labs": 6207,
      "axilla": 6208,
      "##iography": 6209,
      "achieve": 6210,
      "situation": 6211,
      "program": 6212,
      "mesothe": 6213,
      "introducer": 6214,
      "collapse": 6215,
      "angiographic": 6216,
      "tenotomy": 6217,
      "performing": 6218,
      "lipid": 6219,
      "##encing": 6220,
      "experiencing": 6221,
      "##lioma": 6222,
      "displacement": 6223,
      "looks": 6224,
      "noncontrast": 6225,
      "##roglycer": 6226,
      "endometriosis": 6227,
      "##ocyt": 6228,
      "submuc": 6229,
      "suffered": 6230,
      "coban": 6231,
      "sweats": 6232,
      "nitroglycer": 6233,
      "critical": 6234,
      "machine": 6235,
      "lisinop": 6236,
      "##abdominal": 6237,
      "mesothelioma": 6238,
      "nitroglycerin": 6239,
      "lisinopril": 6240,
      "39": 6241,
      "big": 6242,
      "dialysis": 6243,
      "late": 6244,
      "list": 6245,
      "lysis": 6246,
      "nice": 6247,
      "oo": 6248,
      "ok": 6249,
      "torsion": 6250,
      "##take": 6251,
      "##lottic": 6252,
      "##uting": 6253,
      "##gy": 6254,
      "##ground": 6255,
      "##ven": 6256,
      "##orous": 6257,
      "##icteric": 6258,
      "##icidal": 6259,
      "##osal": 6260,
      "##oster": 6261,
      "things": 6262,
      "retinal": 6263,
      "##ulations": 6264,
      "##idge": 6265,
      "##iday": 6266,
      "scans": 6267,
      "chosen": 6268,
      "##actor": 6269,
      "##ogastric": 6270,
      "resume": 6271,
      "##inalysis": 6272,
      "acl": 6273,
      "undesc": 6274,
      "uptake": 6275,
      "transurethral": 6276,
      "surgicel": 6277,
      "outlined": 6278,
      "##ude": 6279,
      "esr": 6280,
      "##epend": 6281,
      "desired": 6282,
      "identifying": 6283,
      "background": 6284,
      "ligature": 6285,
      "brev": 6286,
      "symphysis": 6287,
      "osteoch": 6288,
      "urinalysis": 6289,
      "##rodesis": 6290,
      "bronchial": 6291,
      "palpitations": 6292,
      "probed": 6293,
      "initiated": 6294,
      "freely": 6295,
      "improving": 6296,
      "assessed": 6297,
      "complains": 6298,
      "hydroc": 6299,
      "biopsied": 6300,
      "similarly": 6301,
      "##ovenous": 6302,
      "cartilaginous": 6303,
      "leakage": 6304,
      "##agmus": 6305,
      "seminal": 6306,
      "liquids": 6307,
      "opposite": 6308,
      "parapatellar": 6309,
      "malignancy": 6310,
      "paralle": 6311,
      "communic": 6312,
      "ophthalm": 6313,
      "arrhythm": 6314,
      "uvula": 6315,
      "vacuum": 6316,
      "infundib": 6317,
      "girl": 6318,
      "nystagmus": 6319,
      "reversed": 6320,
      "oozing": 6321,
      "undescended": 6322,
      "54": 6323,
      "88": 6324,
      "cva": 6325,
      "lax": 6326,
      "ng": 6327,
      "ou": 6328,
      "ounc": 6329,
      "pse": 6330,
      "til": 6331,
      "zero": 6332,
      "##night": 6333,
      "##bound": 6334,
      "##mond": 6335,
      "##arachnoid": 6336,
      "##esting": 6337,
      "##ostr": 6338,
      "##inguinal": 6339,
      "##elitis": 6340,
      "##urated": 6341,
      "##oprol": 6342,
      "heard": 6343,
      "atax": 6344,
      "ast": 6345,
      "premed": 6346,
      "##aphy": 6347,
      "spong": 6348,
      "sex": 6349,
      "intake": 6350,
      "arrest": 6351,
      "##allic": 6352,
      "recess": 6353,
      "recip": 6354,
      "subarachnoid": 6355,
      "object": 6356,
      "acuity": 6357,
      "infr": 6358,
      "infused": 6359,
      "instill": 6360,
      "##omyelitis": 6361,
      "##ollen": 6362,
      "##iving": 6363,
      "endarterectomy": 6364,
      "stripped": 6365,
      "marrow": 6366,
      "drape": 6367,
      "extremely": 6368,
      "decortic": 6369,
      "metoprol": 6370,
      "metallic": 6371,
      "meals": 6372,
      "locked": 6373,
      "radicular": 6374,
      "amn": 6375,
      "glute": 6376,
      "specif": 6377,
      "respectively": 6378,
      "osteomyelitis": 6379,
      "describ": 6380,
      "phosph": 6381,
      "swollen": 6382,
      "fibrosis": 6383,
      "fibrous": 6384,
      "deline": 6385,
      "contract": 6386,
      "##wards": 6387,
      "hypopharynx": 6388,
      "##orrhea": 6389,
      "tibialis": 6390,
      "reasonable": 6391,
      "withdrawal": 6392,
      "polypectomy": 6393,
      "occlusive": 6394,
      "helped": 6395,
      "##lecting": 6396,
      "briefly": 6397,
      "stere": 6398,
      "steril": 6399,
      "fulg": 6400,
      "interpre": 6401,
      "##foraminal": 6402,
      "drinks": 6403,
      "pancreatic": 6404,
      "##ipping": 6405,
      "hypothyroid": 6406,
      "films": 6407,
      "sulc": 6408,
      "voice": 6409,
      "carbohydrate": 6410,
      "tented": 6411,
      "ilioinguinal": 6412,
      "flavum": 6413,
      "ounces": 6414,
      "pseud": 6415,
      "metoprolol": 6416,
      "81": 6417,
      "cad": 6418,
      "dph": 6419,
      "lue": 6420,
      "miss": 6421,
      "##bers": 6422,
      "##yc": 6423,
      "##hor": 6424,
      "##regn": 6425,
      "##isting": 6426,
      "##omatous": 6427,
      "##veolar": 6428,
      "reev": 6429,
      "rebound": 6430,
      "##lysis": 6431,
      "##olis": 6432,
      "##imosis": 6433,
      "##ocet": 6434,
      "orch": 6435,
      "scleral": 6436,
      "submitted": 6437,
      "##agic": 6438,
      "acqu": 6439,
      "undert": 6440,
      "endobronchial": 6441,
      "102": 6442,
      "complicated": 6443,
      "independ": 6444,
      "partic": 6445,
      "##anging": 6446,
      "guarding": 6447,
      "glide": 6448,
      "model": 6449,
      "colonic": 6450,
      "sling": 6451,
      "crest": 6452,
      "advance": 6453,
      "dorsally": 6454,
      "becom": 6455,
      "##atarsal": 6456,
      "2006": 6457,
      "myel": 6458,
      "copd": 6459,
      "##titution": 6460,
      "contrib": 6461,
      "facility": 6462,
      "ureteropelvic": 6463,
      "invasion": 6464,
      "appendage": 6465,
      "platelets": 6466,
      "smoot": 6467,
      "ostial": 6468,
      "fields": 6469,
      "pacing": 6470,
      "degeneration": 6471,
      "bases": 6472,
      "leads": 6473,
      "frequently": 6474,
      "lacerations": 6475,
      "analges": 6476,
      "circumference": 6477,
      "intensity": 6478,
      "safely": 6479,
      "looking": 6480,
      "sprain": 6481,
      "keeping": 6482,
      "supraspinatus": 6483,
      "hyperemic": 6484,
      "rhinitis": 6485,
      "dictated": 6486,
      "gestation": 6487,
      "anaerobic": 6488,
      "individual": 6489,
      "neoplasm": 6490,
      "comminuted": 6491,
      "spermatocele": 6492,
      "osteoarthritis": 6493,
      "average": 6494,
      "jl4": 6495,
      "okay": 6496,
      "specifically": 6497,
      "reevalu": 6498,
      "az": 6499,
      "cpt": 6500,
      "gone": 6501,
      "mil": 6502,
      "native": 6503,
      "rati": 6504,
      "viral": 6505,
      "##land": 6506,
      "##auc": 6507,
      "##aud": 6508,
      "##auricular": 6509,
      "##erated": 6510,
      "##ics": 6511,
      "##antin": 6512,
      "##omas": 6513,
      "##ime": 6514,
      "##imus": 6515,
      "plates": 6516,
      "##amycin": 6517,
      "##umin": 6518,
      "##otactic": 6519,
      "##stant": 6520,
      "##standing": 6521,
      "spi": 6522,
      "clo": 6523,
      "option": 6524,
      "diamond": 6525,
      "##ogenic": 6526,
      "cortic": 6527,
      "consolid": 6528,
      "outflow": 6529,
      "colitis": 6530,
      "draping": 6531,
      "conditions": 6532,
      "insert": 6533,
      "recovered": 6534,
      "longstanding": 6535,
      "consented": 6536,
      "osteomed": 6537,
      "awa": 6538,
      "arteriovenous": 6539,
      "gallst": 6540,
      "tele": 6541,
      "pedunc": 6542,
      "prominence": 6543,
      "mobilization": 6544,
      "factors": 6545,
      "piriform": 6546,
      "ethmoid": 6547,
      "ensured": 6548,
      "hemovac": 6549,
      "torn": 6550,
      "shield": 6551,
      "gastritis": 6552,
      "mesenteric": 6553,
      "global": 6554,
      "psa": 6555,
      "projections": 6556,
      "bleeders": 6557,
      "granulation": 6558,
      "turbinates": 6559,
      "ambulation": 6560,
      "pubis": 6561,
      "trimmed": 6562,
      "clonus": 6563,
      "tortuous": 6564,
      "harmonic": 6565,
      "endocrine": 6566,
      "vertebra": 6567,
      "parallel": 6568,
      "stereotactic": 6569,
      "hypothyroidism": 6570,
      "dark": 6571,
      "dyn": 6572,
      "gy": 6573,
      "hig": 6574,
      "june": 6575,
      "lt": 6576,
      "lati": 6577,
      "lord": 6578,
      "ot": 6579,
      "pure": 6580,
      "tag": 6581,
      "##oves": 6582,
      "##uy": 6583,
      "##uary": 6584,
      "##xy": 6585,
      "##hel": 6586,
      "##oses": 6587,
      "##acryl": 6588,
      "reamed": 6589,
      "noct": 6590,
      "##oliosis": 6591,
      "ongoing": 6592,
      "styl": 6593,
      "##etatarsal": 6594,
      "##ssimus": 6595,
      "weigh": 6596,
      "ablation": 6597,
      "debul": 6598,
      "##aken": 6599,
      "adip": 6600,
      "##ucting": 6601,
      "chan": 6602,
      "caused": 6603,
      "##entia": 6604,
      "overnight": 6605,
      "impregn": 6606,
      "marker": 6607,
      "cleft": 6608,
      "fasciotomy": 6609,
      "meal": 6610,
      "whole": 6611,
      "educ": 6612,
      "##urring": 6613,
      "screen": 6614,
      "walls": 6615,
      "hyperlipidemia": 6616,
      "draining": 6617,
      "##arest": 6618,
      "110": 6619,
      "nasol": 6620,
      "subseg": 6621,
      "allergy": 6622,
      "developmental": 6623,
      "proton": 6624,
      "tunica": 6625,
      "radiology": 6626,
      "hemorrhagic": 6627,
      "crani": 6628,
      "bedside": 6629,
      "basically": 6630,
      "aligned": 6631,
      "raising": 6632,
      "ascites": 6633,
      "annulus": 6634,
      "folds": 6635,
      "rongeurs": 6636,
      "addressed": 6637,
      "toradol": 6638,
      "ptosis": 6639,
      "paraph": 6640,
      "steel": 6641,
      "magnification": 6642,
      "calorie": 6643,
      "tacked": 6644,
      "focus": 6645,
      "watchful": 6646,
      "ramus": 6647,
      "dimensions": 6648,
      "vigorous": 6649,
      "indeed": 6650,
      "guarded": 6651,
      "oversewn": 6652,
      "inpatient": 6653,
      "unresponsive": 6654,
      "laxity": 6655,
      "reciproc": 6656,
      "undertaken": 6657,
      "ratio": 6658,
      "latissimus": 6659,
      "##acrylate": 6660,
      "styloid": 6661,
      "impregnated": 6662,
      "b12": 6663,
      "dio": 6664,
      "life": 6665,
      "pop": 6666,
      "pins": 6667,
      "rv": 6668,
      "##iologic": 6669,
      "##eper": 6670,
      "##meth": 6671,
      "##alc": 6672,
      "inhib": 6673,
      "##itors": 6674,
      "##opectoral": 6675,
      "##utum": 6676,
      "##emed": 6677,
      "##otal": 6678,
      "sheet": 6679,
      "##ocin": 6680,
      "death": 6681,
      "deeper": 6682,
      "deemed": 6683,
      "clip": 6684,
      "herself": 6685,
      "##omyopathy": 6686,
      "posts": 6687,
      "ent": 6688,
      "import": 6689,
      "iron": 6690,
      "nonweight": 6691,
      "glass": 6692,
      "usually": 6693,
      "coar": 6694,
      "word": 6695,
      "advanc": 6696,
      "totally": 6697,
      "corrected": 6698,
      "corresp": 6699,
      "cauterization": 6700,
      "else": 6701,
      "forehead": 6702,
      "invasive": 6703,
      "adenoma": 6704,
      "infiltrate": 6705,
      "suggestion": 6706,
      "walker": 6707,
      "tightness": 6708,
      "drip": 6709,
      "punch": 6710,
      "cardiover": 6711,
      "cardiomyopathy": 6712,
      "deficiency": 6713,
      "deltopectoral": 6714,
      "vitre": 6715,
      "infarct": 6716,
      "exsanguinate": 6717,
      "neuropsych": 6718,
      "##ocytes": 6719,
      "sample": 6720,
      "morphology": 6721,
      "ophthalmic": 6722,
      "migraine": 6723,
      "varicose": 6724,
      "spells": 6725,
      "remnant": 6726,
      "asymmetry": 6727,
      "wishes": 6728,
      "brevis": 6729,
      "nonweightbearing": 6730,
      "bank": 6731,
      "dated": 6732,
      "ductal": 6733,
      "ecc": 6734,
      "fn": 6735,
      "kind": 6736,
      "luc": 6737,
      "pall": 6738,
      "parest": 6739,
      "rand": 6740,
      "rbc": 6741,
      "tamp": 6742,
      "vasc": 6743,
      "##tain": 6744,
      "##oap": 6745,
      "##oval": 6746,
      "##sal": 6747,
      "##pi": 6748,
      "##pad": 6749,
      "##ptions": 6750,
      "##vd": 6751,
      "##xiphoid": 6752,
      "##alk": 6753,
      "##rew": 6754,
      "##oring": 6755,
      "##acti": 6756,
      "##anation": 6757,
      "##urance": 6758,
      "##ilon": 6759,
      "stalk": 6760,
      "constant": 6761,
      "prevertebral": 6762,
      "##ote": 6763,
      "##chs": 6764,
      "thereaf": 6765,
      "spoke": 6766,
      "sputum": 6767,
      "shock": 6768,
      "subxiphoid": 6769,
      "hemod": 6770,
      "constitution": 6771,
      "ended": 6772,
      "fraying": 6773,
      "hypos": 6774,
      "femor": 6775,
      "colostomy": 6776,
      "decad": 6777,
      "retrop": 6778,
      "calvar": 6779,
      "manual": 6780,
      "##tisol": 6781,
      "redundant": 6782,
      "creating": 6783,
      "##otrip": 6784,
      "valv": 6785,
      "dementia": 6786,
      "sheaths": 6787,
      "accomp": 6788,
      "##psis": 6789,
      "severity": 6790,
      "sugars": 6791,
      "expect": 6792,
      "emergent": 6793,
      "##exy": 6794,
      "##ething": 6795,
      "understand": 6796,
      "padding": 6797,
      "condyl": 6798,
      "maintaining": 6799,
      "##genital": 6800,
      "concentric": 6801,
      "actual": 6802,
      "pulsati": 6803,
      "sections": 6804,
      "purp": 6805,
      "deficit": 6806,
      "punctured": 6807,
      "talus": 6808,
      "anatomical": 6809,
      "ventilation": 6810,
      "rubber": 6811,
      "bifurc": 6812,
      "dilators": 6813,
      "radiographic": 6814,
      "tapped": 6815,
      "erosions": 6816,
      "definite": 6817,
      "omn": 6818,
      "tracking": 6819,
      "calories": 6820,
      "lifting": 6821,
      "stabilized": 6822,
      "dropped": 6823,
      "abductor": 6824,
      "towels": 6825,
      "stretcher": 6826,
      "diverticula": 6827,
      "voiding": 6828,
      "something": 6829,
      "fcr": 6830,
      "intermetatarsal": 6831,
      "immobilizer": 6832,
      "premature": 6833,
      "lightheadedness": 6834,
      "bradycardia": 6835,
      "##rodissection": 6836,
      "fissure": 6837,
      "intermedius": 6838,
      "hammert": 6839,
      "ataxia": 6840,
      "describes": 6841,
      "sterilization": 6842,
      "##olisthesis": 6843,
      "advancement": 6844,
      "##oapical": 6845,
      "##ovalgus": 6846,
      "##padias": 6847,
      "thereafter": 6848,
      "constitutional": 6849,
      "hypospadias": 6850,
      "accompan": 6851,
      "49": 6852,
      "73": 6853,
      "cutaneous": 6854,
      "dow": 6855,
      "dome": 6856,
      "gain": 6857,
      "hit": 6858,
      "larynx": 6859,
      "vul": 6860,
      "wants": 6861,
      "##iosteal": 6862,
      "##event": 6863,
      "##be": 6864,
      "##rim": 6865,
      "##cock": 6866,
      "##mber": 6867,
      "##mother": 6868,
      "##venti": 6869,
      "##tired": 6870,
      "##alg": 6871,
      "##ithel": 6872,
      "retired": 6873,
      "heter": 6874,
      "let": 6875,
      "congenital": 6876,
      "suffic": 6877,
      "##sthor": 6878,
      "perr": 6879,
      "##riend": 6880,
      "defer": 6881,
      "sewn": 6882,
      "sho": 6883,
      "shoe": 6884,
      "trab": 6885,
      "hasson": 6886,
      "cho": 6887,
      "medtronic": 6888,
      "fluct": 6889,
      "interested": 6890,
      "unevent": 6891,
      "hemang": 6892,
      "hemocl": 6893,
      "friday": 6894,
      "fashioned": 6895,
      "cheek": 6896,
      "mark": 6897,
      "intrap": 6898,
      "##ocking": 6899,
      "veget": 6900,
      "cramp": 6901,
      "heartburn": 6902,
      "core": 6903,
      "hernias": 6904,
      "crep": 6905,
      "detailed": 6906,
      "apg": 6907,
      "minimally": 6908,
      "himself": 6909,
      "bronchitis": 6910,
      "treatments": 6911,
      "relative": 6912,
      "teg": 6913,
      "accur": 6914,
      "obstructing": 6915,
      "pedal": 6916,
      "gastroc": 6917,
      "separately": 6918,
      "drilling": 6919,
      "naris": 6920,
      "prescribed": 6921,
      "remains": 6922,
      "factor": 6923,
      "cardiology": 6924,
      "purch": 6925,
      "exercises": 6926,
      "bacteri": 6927,
      "sixth": 6928,
      "dermat": 6929,
      "foods": 6930,
      "confirming": 6931,
      "semi": 6932,
      "tonsillectomy": 6933,
      "lavaged": 6934,
      "grandmother": 6935,
      "hyperemia": 6936,
      "latency": 6937,
      "supraclavicular": 6938,
      "pledget": 6939,
      "recheck": 6940,
      "transthor": 6941,
      "objects": 6942,
      "interpreted": 6943,
      "adipose": 6944,
      "reciprocating": 6945,
      "cardioversion": 6946,
      "##otripsy": 6947,
      "trabec": 6948,
      "transthoracic": 6949,
      "born": 6950,
      "formal": 6951,
      "gel": 6952,
      "gadol": 6953,
      "hope": 6954,
      "jan": 6955,
      "jaw": 6956,
      "live": 6957,
      "nutrition": 6958,
      "ochs": 6959,
      "s3": 6960,
      "trou": 6961,
      "tips": 6962,
      "yell": 6963,
      "##oot": 6964,
      "##lu": 6965,
      "##pm": 6966,
      "##ventricular": 6967,
      "##enia": 6968,
      "##enail": 6969,
      "##inium": 6970,
      "anus": 6971,
      "inability": 6972,
      "##ators": 6973,
      "##itated": 6974,
      "toenail": 6975,
      "##acarp": 6976,
      "thres": 6977,
      "##uly": 6978,
      "##ulsion": 6979,
      "##ads": 6980,
      "##opt": 6981,
      "plaqu": 6982,
      "##ottis": 6983,
      "##rix": 6984,
      "incis": 6985,
      "##moker": 6986,
      "tray": 6987,
      "##unity": 6988,
      "scoliosis": 6989,
      "chyl": 6990,
      "notable": 6991,
      "histology": 6992,
      "hemi": 6993,
      "##ortunity": 6994,
      "presenting": 6995,
      "paran": 6996,
      "visc": 6997,
      "collecting": 6998,
      "##raphy": 6999,
      "##times": 7000,
      "##rosyn": 7001,
      "##aves": 7002,
      "angulation": 7003,
      "stenosing": 7004,
      "thank": 7005,
      "dorsum": 7006,
      "inflation": 7007,
      "dilantin": 7008,
      "salt": 7009,
      "explanation": 7010,
      "correlation": 7011,
      "bronchi": 7012,
      "effac": 7013,
      "infections": 7014,
      "division": 7015,
      "197": 7016,
      "receiving": 7017,
      "structure": 7018,
      "holder": 7019,
      "packs": 7020,
      "synov": 7021,
      "encirc": 7022,
      "suggested": 7023,
      "variable": 7024,
      "takeoff": 7025,
      "polypoid": 7026,
      "##ograms": 7027,
      "babcock": 7028,
      "cemented": 7029,
      "prescriptions": 7030,
      "driving": 7031,
      "success": 7032,
      "managed": 7033,
      "exception": 7034,
      "sternotomy": 7035,
      "method": 7036,
      "coagul": 7037,
      "strokes": 7038,
      "conjunctival": 7039,
      "product": 7040,
      "nonsmoker": 7041,
      "mandibular": 7042,
      "carbon": 7043,
      "opportunity": 7044,
      "determine": 7045,
      "electrical": 7046,
      "definitive": 7047,
      "lifted": 7048,
      "sulf": 7049,
      "turbinate": 7050,
      "cycle": 7051,
      "rehabil": 7052,
      "sooner": 7053,
      "extracted": 7054,
      "neuroma": 7055,
      "trochanter": 7056,
      "repositioned": 7057,
      "triangle": 7058,
      "sponges": 7059,
      "glidewire": 7060,
      "higher": 7061,
      "postsurgical": 7062,
      "random": 7063,
      "decadron": 7064,
      "pulsatile": 7065,
      "hammertoe": 7066,
      "heterogeneous": 7067,
      "gadolinium": 7068,
      "threshol": 7069,
      "47": 7070,
      "cocaine": 7071,
      "eat": 7072,
      "jejun": 7073,
      "kit": 7074,
      "ow": 7075,
      "pon": 7076,
      "skele": 7077,
      "sense": 7078,
      "ven": 7079,
      "x4": 7080,
      "zone": 7081,
      "##str": 7082,
      "##cs": 7083,
      "##men": 7084,
      "##xide": 7085,
      "##tious": 7086,
      "##inated": 7087,
      "##ortion": 7088,
      "##atz": 7089,
      "##itate": 7090,
      "##itary": 7091,
      "##aries": 7092,
      "##arenal": 7093,
      "reass": 7094,
      "##uli": 7095,
      "##utely": 7096,
      "##oling": 7097,
      "leave": 7098,
      "##chair": 7099,
      "spot": 7100,
      "shot": 7101,
      "medrol": 7102,
      "caver": 7103,
      "##omycin": 7104,
      "incisional": 7105,
      "consum": 7106,
      "##andibular": 7107,
      "##plasia": 7108,
      "abduction": 7109,
      "strict": 7110,
      "stripping": 7111,
      "##riceps": 7112,
      "intrins": 7113,
      "##obia": 7114,
      "tubing": 7115,
      "##ophobia": 7116,
      "##rosp": 7117,
      "lift": 7118,
      "crus": 7119,
      "hyperventi": 7120,
      "passing": 7121,
      "circulation": 7122,
      "intraoperatively": 7123,
      "seven": 7124,
      "book": 7125,
      "carpi": 7126,
      "distention": 7127,
      "quadriceps": 7128,
      "plateau": 7129,
      "collar": 7130,
      "easy": 7131,
      "everted": 7132,
      "temporalis": 7133,
      "waist": 7134,
      "concent": 7135,
      "mobilize": 7136,
      "curettes": 7137,
      "anesthetize": 7138,
      "pupil": 7139,
      "bruising": 7140,
      "emphys": 7141,
      "personal": 7142,
      "caudally": 7143,
      "counter": 7144,
      "vesic": 7145,
      "vesicles": 7146,
      "responsive": 7147,
      "ecg": 7148,
      "measurement": 7149,
      "morphine": 7150,
      "precau": 7151,
      "suddenly": 7152,
      "panel": 7153,
      "melena": 7154,
      "groups": 7155,
      "peroneal": 7156,
      "urgency": 7157,
      "predominantly": 7158,
      "smoothed": 7159,
      "channel": 7160,
      "downg": 7161,
      "skeleton": 7162,
      "6h": 7163,
      "89": 7164,
      "800": 7165,
      "dyst": 7166,
      "jp": 7167,
      "mos": 7168,
      "named": 7169,
      "naming": 7170,
      "rare": 7171,
      "sess": 7172,
      "tonic": 7173,
      "urolog": 7174,
      "##foot": 7175,
      "##titial": 7176,
      "##alemia": 7177,
      "##oratory": 7178,
      "##osse": 7179,
      "##ander": 7180,
      "reop": 7181,
      "##ulous": 7182,
      "##ilic": 7183,
      "isthm": 7184,
      "isov": 7185,
      "exacer": 7186,
      "lev": 7187,
      "leva": 7188,
      "conch": 7189,
      "##ematous": 7190,
      "##cephal": 7191,
      "wear": 7192,
      "spent": 7193,
      "sparing": 7194,
      "##iflex": 7195,
      "##union": 7196,
      "interbody": 7197,
      "unus": 7198,
      "habits": 7199,
      "##ensity": 7200,
      "timi": 7201,
      "positions": 7202,
      "vertex": 7203,
      "brush": 7204,
      "##fices": 7205,
      "ide": 7206,
      "##oidal": 7207,
      "midc": 7208,
      "##angiography": 7209,
      "##ervain": 7210,
      "quervain": 7211,
      "completing": 7212,
      "feed": 7213,
      "shoulders": 7214,
      "remarkable": 7215,
      "##certain": 7216,
      "multivit": 7217,
      "cream": 7218,
      "phon": 7219,
      "phase": 7220,
      "phimosis": 7221,
      "dorsiflex": 7222,
      "awoke": 7223,
      "loos": 7224,
      "##bility": 7225,
      "exploratory": 7226,
      "antibody": 7227,
      "uterosacral": 7228,
      "nodular": 7229,
      "centered": 7230,
      "teasp": 7231,
      "request": 7232,
      "hypox": 7233,
      "serous": 7234,
      "smokes": 7235,
      "infiltrates": 7236,
      "repeti": 7237,
      "likewise": 7238,
      "groins": 7239,
      "basilar": 7240,
      "scarred": 7241,
      "varus": 7242,
      "variety": 7243,
      "concerning": 7244,
      "cecal": 7245,
      "interstitial": 7246,
      "echo": 7247,
      "keflex": 7248,
      "snack": 7249,
      "##bulbar": 7250,
      "orthost": 7251,
      "##encies": 7252,
      "undergoing": 7253,
      "methyl": 7254,
      "##averine": 7255,
      "sequence": 7256,
      "##operiosteal": 7257,
      "coagulated": 7258,
      "affected": 7259,
      "barre": 7260,
      "chondroplasty": 7261,
      "papaverine": 7262,
      "pancreatitis": 7263,
      "establish": 7264,
      "anchors": 7265,
      "723": 7266,
      "antral": 7267,
      "retroflexion": 7268,
      "taped": 7269,
      "ulcerations": 7270,
      "epicondyl": 7271,
      "bundles": 7272,
      "deviated": 7273,
      "construction": 7274,
      "constructed": 7275,
      "paralysis": 7276,
      "balanced": 7277,
      "stabilization": 7278,
      "codeine": 7279,
      "rapidly": 7280,
      "granul": 7281,
      "keratome": 7282,
      "agreeable": 7283,
      "mechanical": 7284,
      "mammogram": 7285,
      "meningioma": 7286,
      "tiny": 7287,
      "electrode": 7288,
      "arrival": 7289,
      "tendinosis": 7290,
      "employed": 7291,
      "neurosurgery": 7292,
      "transitional": 7293,
      "particip": 7294,
      "fnf": 7295,
      "hemodialysis": 7296,
      "perrla": 7297,
      "ochsner": 7298,
      "yellow": 7299,
      "isovue": 7300,
      "exacerb": 7301,
      "multivitamin": 7302,
      "bent": 7303,
      "bite": 7304,
      "ck": 7305,
      "cx": 7306,
      "ger": 7307,
      "gore": 7308,
      "langu": 7309,
      "mond": 7310,
      "outer": 7311,
      "pf": 7312,
      "pip": 7313,
      "tell": 7314,
      "tars": 7315,
      "tying": 7316,
      "want": 7317,
      "##oing": 7318,
      "##last": 7319,
      "##lose": 7320,
      "##rtec": 7321,
      "##matous": 7322,
      "##yema": 7323,
      "##hs": 7324,
      "##tiel": 7325,
      "##onitis": 7326,
      "##alveolar": 7327,
      "##inder": 7328,
      "##enter": 7329,
      "##entation": 7330,
      "##tering": 7331,
      "##vember": 7332,
      "november": 7333,
      "##uminal": 7334,
      "contraction": 7335,
      "pertin": 7336,
      "##riting": 7337,
      "adverse": 7338,
      "chips": 7339,
      "uncertain": 7340,
      "##enstiel": 7341,
      "hemopt": 7342,
      "constric": 7343,
      "##irect": 7344,
      "bright": 7345,
      "indirect": 7346,
      "desatur": 7347,
      "march": 7348,
      "visually": 7349,
      "irrigate": 7350,
      "##raz": 7351,
      "nonp": 7352,
      "subcutaneously": 7353,
      "crp": 7354,
      "coin": 7355,
      "inferolateral": 7356,
      "hyperint": 7357,
      "hyperchol": 7358,
      "##oresis": 7359,
      "delay": 7360,
      "continuation": 7361,
      "inflamed": 7362,
      "myring": 7363,
      "dilate": 7364,
      "##olemia": 7365,
      "stapled": 7366,
      "ureters": 7367,
      "##roscopy": 7368,
      "orifices": 7369,
      "situ": 7370,
      "numbers": 7371,
      "progressed": 7372,
      "pinp": 7373,
      "synch": 7374,
      "pads": 7375,
      "various": 7376,
      "##apez": 7377,
      "benz": 7378,
      "implants": 7379,
      "dietary": 7380,
      "osteopor": 7381,
      "volts": 7382,
      "vasectomy": 7383,
      "equals": 7384,
      "steroids": 7385,
      "everything": 7386,
      "schedule": 7387,
      "empyema": 7388,
      "lithotripsy": 7389,
      "##esterolemia": 7390,
      "##pecific": 7391,
      "saturations": 7392,
      "producing": 7393,
      "hiatus": 7394,
      "nonspecific": 7395,
      "skills": 7396,
      "records": 7397,
      "diaphragmatic": 7398,
      "knows": 7399,
      "mastisol": 7400,
      "augmentation": 7401,
      "dictation": 7402,
      "nephro": 7403,
      "chloride": 7404,
      "consistency": 7405,
      "electroly": 7406,
      "laryngoscope": 7407,
      "##annenstiel": 7408,
      "sounded": 7409,
      "character": 7410,
      "zyrtec": 7411,
      "endocatch": 7412,
      "rheumatoid": 7413,
      "tilt": 7414,
      "consolidation": 7415,
      "pedunculated": 7416,
      "dioxide": 7417,
      "purchase": 7418,
      "january": 7419,
      "encircled": 7420,
      "rehabilitation": 7421,
      "emphysema": 7422,
      "downgoing": 7423,
      "isthmus": 7424,
      "unusual": 7425,
      "midclavicular": 7426,
      "language": 7427,
      "monday": 7428,
      "pfannenstiel": 7429,
      "pertinent": 7430,
      "hemoptysis": 7431,
      "hypercholesterolemia": 7432,
      "auricular": 7433,
      "bss": 7434,
      "bio": 7435,
      "ce": 7436,
      "cus": 7437,
      "cubital": 7438,
      "dx": 7439,
      "jvd": 7440,
      "lun": 7441,
      "lys": 7442,
      "nu": 7443,
      "poll": 7444,
      "rle": 7445,
      "viol": 7446,
      "wn": 7447,
      "wax": 7448,
      "xi": 7449,
      "your": 7450,
      "##bo": 7451,
      "##mi": 7452,
      "##vised": 7453,
      "##ash": 7454,
      "##asms": 7455,
      "anore": 7456,
      "anicteric": 7457,
      "##acular": 7458,
      "##eles": 7459,
      "##usely": 7460,
      "##trin": 7461,
      "##olite": 7462,
      "steal": 7463,
      "stenting": 7464,
      "preperitoneal": 7465,
      "##othyroid": 7466,
      "leftward": 7467,
      "##odil": 7468,
      "##chlor": 7469,
      "deal": 7470,
      "bladed": 7471,
      "integ": 7472,
      "opted": 7473,
      "added": 7474,
      "##quit": 7475,
      "arc": 7476,
      "##illitis": 7477,
      "##mented": 7478,
      "##ogenous": 7479,
      "##ectomies": 7480,
      "##ager": 7481,
      "acting": 7482,
      "##ipment": 7483,
      "interosse": 7484,
      "undermined": 7485,
      "motrin": 7486,
      "button": 7487,
      "##iques": 7488,
      "attack": 7489,
      "attending": 7490,
      "mini": 7491,
      "##inations": 7492,
      "##iopexy": 7493,
      "descended": 7494,
      "assured": 7495,
      "##cerated": 7496,
      "phone": 7497,
      "systematic": 7498,
      "mayfield": 7499,
      "mainly": 7500,
      "##iceal": 7501,
      "##athyroid": 7502,
      "intraabdominal": 7503,
      "arthrodesis": 7504,
      "confusion": 7505,
      "nodal": 7506,
      "satisfactor": 7507,
      "knot": 7508,
      "handle": 7509,
      "reloc": 7510,
      "sinusitis": 7511,
      "requesting": 7512,
      "supply": 7513,
      "aortogram": 7514,
      "##oken": 7515,
      "digoxin": 7516,
      "l45": 7517,
      "retrobulbar": 7518,
      "weekend": 7519,
      "belly": 7520,
      "platelet": 7521,
      "expressed": 7522,
      "##iscan": 7523,
      "potentially": 7524,
      "bedtime": 7525,
      "returns": 7526,
      "reapproximate": 7527,
      "equipment": 7528,
      "devices": 7529,
      "chamfer": 7530,
      "covering": 7531,
      "coverage": 7532,
      "cardiolite": 7533,
      "conjoint": 7534,
      "adjusted": 7535,
      "rao": 7536,
      "continuously": 7537,
      "dermal": 7538,
      "##ymal": 7539,
      "cerebellum": 7540,
      "stemmed": 7541,
      "percutaneously": 7542,
      "reading": 7543,
      "conclusions": 7544,
      "pitocin": 7545,
      "ambulate": 7546,
      "hyster": 7547,
      "anticoagulation": 7548,
      "measurements": 7549,
      "august": 7550,
      "chlorhex": 7551,
      "leaflets": 7552,
      "fibroids": 7553,
      "kyphosis": 7554,
      "transversely": 7555,
      "pillow": 7556,
      "fingerbreadths": 7557,
      "gravida": 7558,
      "cineangiography": 7559,
      "accept": 7560,
      "green": 7561,
      "lengthening": 7562,
      "reversible": 7563,
      "flattening": 7564,
      "anticipated": 7565,
      "rr16": 7566,
      "lexiscan": 7567,
      "evacuation": 7568,
      "gluteus": 7569,
      "sulcus": 7570,
      "orchiopexy": 7571,
      "lucid": 7572,
      "retropubic": 7573,
      "purpose": 7574,
      "deferens": 7575,
      "fluctu": 7576,
      "apgars": 7577,
      "cavern": 7578,
      "precautions": 7579,
      "mosquit": 7580,
      "stealth": 7581,
      "satisfactorily": 7582,
      "chlorhexidine": 7583,
      "7th": 7584,
      "aqu": 7585,
      "cv": 7586,
      "dm": 7587,
      "ft": 7588,
      "hips": 7589,
      "ig": 7590,
      "ly": 7591,
      "pic": 7592,
      "plex": 7593,
      "row": 7594,
      "writing": 7595,
      "##iob": 7596,
      "##eu": 7597,
      "##damycin": 7598,
      "##oalveolar": 7599,
      "##ball": 7600,
      "##ky": 7601,
      "##fr": 7602,
      "##where": 7603,
      "##enes": 7604,
      "##ining": 7605,
      "##requ": 7606,
      "inversion": 7607,
      "##atosis": 7608,
      "##arb": 7609,
      "##rof": 7610,
      "##esia": 7611,
      "offer": 7612,
      "##eleration": 7613,
      "nothing": 7614,
      "##old": 7615,
      "exch": 7616,
      "distrac": 7617,
      "aseptic": 7618,
      "##emic": 7619,
      "##irub": 7620,
      "spasms": 7621,
      "deferred": 7622,
      "##quin": 7623,
      "univer": 7624,
      "frank": 7625,
      "##ibility": 7626,
      "##oscopically": 7627,
      "104": 7628,
      "##ultaneous": 7629,
      "bilirub": 7630,
      "canth": 7631,
      "approximation": 7632,
      "subcostal": 7633,
      "pars": 7634,
      "##tility": 7635,
      "##achment": 7636,
      "colum": 7637,
      "##ixed": 7638,
      "excurs": 7639,
      "injured": 7640,
      "epithel": 7641,
      "cardinal": 7642,
      "nonoperative": 7643,
      "glauc": 7644,
      "mode": 7645,
      "##tisone": 7646,
      "tablet": 7647,
      "depressed": 7648,
      "swing": 7649,
      "lids": 7650,
      "##axillary": 7651,
      "urination": 7652,
      "clindamycin": 7653,
      "simultaneous": 7654,
      "sacrum": 7655,
      "cystoure": 7656,
      "elastic": 7657,
      "shortly": 7658,
      "suppor": 7659,
      "blocker": 7660,
      "thirds": 7661,
      "withdrew": 7662,
      "maln": 7663,
      "laminotomy": 7664,
      "accessory": 7665,
      "reconstructed": 7666,
      "poorly": 7667,
      "pushed": 7668,
      "metastasis": 7669,
      "sclerosis": 7670,
      "traumatic": 7671,
      "triceps": 7672,
      "waveform": 7673,
      "##orbid": 7674,
      "ambulating": 7675,
      "ecch": 7676,
      "hallucinations": 7677,
      "referral": 7678,
      "submandibular": 7679,
      "accommodate": 7680,
      "##hexis": 7681,
      "inhalation": 7682,
      "regards": 7683,
      "accep": 7684,
      "behavior": 7685,
      "comprehension": 7686,
      "subtotal": 7687,
      "vestibular": 7688,
      "periventricular": 7689,
      "spatulated": 7690,
      "fibrinous": 7691,
      "hopefully": 7692,
      "trouble": 7693,
      "effacement": 7694,
      "owen": 7695,
      "levaquin": 7696,
      "osteoporosis": 7697,
      "nurol": 7698,
      "wnl": 7699,
      "ft4": 7700,
      "bilirubin": 7701,
      "excursion": 7702,
      "glaucoma": 7703,
      "cystoureth": 7704,
      "83": 7705,
      "aus": 7706,
      "avascular": 7707,
      "bare": 7708,
      "cas": 7709,
      "cyl": 7710,
      "eea": 7711,
      "gun": 7712,
      "hg": 7713,
      "mec": 7714,
      "nap": 7715,
      "pound": 7716,
      "salp": 7717,
      "tet": 7718,
      "tree": 7719,
      "trop": 7720,
      "tones": 7721,
      "yet": 7722,
      "##oop": 7723,
      "##ogn": 7724,
      "##ovi": 7725,
      "##right": 7726,
      "##mer": 7727,
      "##yma": 7728,
      "##zy": 7729,
      "##wall": 7730,
      "##onate": 7731,
      "##onding": 7732,
      "##istic": 7733,
      "inges": 7734,
      "intimal": 7735,
      "##arcerated": 7736,
      "##osc": 7737,
      "##osum": 7738,
      "##omet": 7739,
      "##omatic": 7740,
      "##ulopelvic": 7741,
      "##ider": 7742,
      "noting": 7743,
      "##opath": 7744,
      "##iaz": 7745,
      "##tren": 7746,
      "plas": 7747,
      "beads": 7748,
      "poster": 7749,
      "##otome": 7750,
      "##terile": 7751,
      "apposition": 7752,
      "nev": 7753,
      "##tically": 7754,
      "##ticulation": 7755,
      "##ouse": 7756,
      "incarcerated": 7757,
      "ability": 7758,
      "##romycin": 7759,
      "sepsis": 7760,
      "blind": 7761,
      "blurred": 7762,
      "intes": 7763,
      "admit": 7764,
      "articulation": 7765,
      "##mox": 7766,
      "submental": 7767,
      "interrog": 7768,
      "##abial": 7769,
      "upright": 7770,
      "sometimes": 7771,
      "esc": 7772,
      "##epam": 7773,
      "parox": 7774,
      "parathyroid": 7775,
      "destr": 7776,
      "midas": 7777,
      "pulm": 7778,
      "colic": 7779,
      "regim": 7780,
      "metab": 7781,
      "metacarp": 7782,
      "sidewall": 7783,
      "##hesias": 7784,
      "edematous": 7785,
      "ventricles": 7786,
      "##stead": 7787,
      "passive": 7788,
      "occur": 7789,
      "swit": 7790,
      "fibrotic": 7791,
      "##metry": 7792,
      "##axial": 7793,
      "freeing": 7794,
      "bowels": 7795,
      "##rode": 7796,
      "mucus": 7797,
      "effective": 7798,
      "goal": 7799,
      "prolapse": 7800,
      "cauteriz": 7801,
      "relax": 7802,
      "pathological": 7803,
      "restored": 7804,
      "##orrhexis": 7805,
      "##inson": 7806,
      "radiating": 7807,
      "absorbable": 7808,
      "smoker": 7809,
      "gastroenter": 7810,
      "fatty": 7811,
      "patellae": 7812,
      "interscal": 7813,
      "suspect": 7814,
      "toprol": 7815,
      "cardiologist": 7816,
      "sigmoidoscopy": 7817,
      "preprocedure": 7818,
      "angiograms": 7819,
      "calibrated": 7820,
      "irregularity": 7821,
      "turp": 7822,
      "adduction": 7823,
      "moment": 7824,
      "maxilla": 7825,
      "nonsterile": 7826,
      "papilled": 7827,
      "lining": 7828,
      "drinking": 7829,
      "anchored": 7830,
      "subdartos": 7831,
      "grams": 7832,
      "acetabular": 7833,
      "045": 7834,
      "crystalloids": 7835,
      "capsulorrhexis": 7836,
      "gutter": 7837,
      "buttocks": 7838,
      "phenol": 7839,
      "bier": 7840,
      "acromioc": 7841,
      "manipulated": 7842,
      "eomi": 7843,
      "bulky": 7844,
      "hypotension": 7845,
      "foci": 7846,
      "dupuy": 7847,
      "##occipital": 7848,
      "medicines": 7849,
      "excluded": 7850,
      "happy": 7851,
      "cineangiogram": 7852,
      "incorporated": 7853,
      "dentition": 7854,
      "hamate": 7855,
      "robinson": 7856,
      "cpap": 7857,
      "substance": 7858,
      "epilepsy": 7859,
      "artif": 7860,
      "parenchyma": 7861,
      "diminished": 7862,
      "##absorbable": 7863,
      "arrhythmia": 7864,
      "infundibulopelvic": 7865,
      "infraspinatus": 7866,
      "acquired": 7867,
      "await": 7868,
      "corresponding": 7869,
      "eccentric": 7870,
      "pallor": 7871,
      "paresthesias": 7872,
      "valvular": 7873,
      "accompanied": 7874,
      "incisors": 7875,
      "threshold": 7876,
      "skeletonized": 7877,
      "teaspoon": 7878,
      "electrolytes": 7879,
      "mosquito": 7880,
      "malnutrition": 7881,
      "austin": 7882,
      "salping": 7883,
      "##ovium": 7884,
      "interscalene": 7885,
      "papilledema": 7886,
      "acromioclavicular": 7887,
      "dupuytren": 7888,
      "buck": 7889,
      "fal": 7890,
      "gle": 7891,
      "gale": 7892,
      "hz": 7893,
      "hks": 7894,
      "jer": 7895,
      "july": 7896,
      "oil": 7897,
      "pillar": 7898,
      "sort": 7899,
      "sump": 7900,
      "sellar": 7901,
      "tens": 7902,
      "tread": 7903,
      "vanc": 7904,
      "vuls": 7905,
      "##late": 7906,
      "##sive": 7907,
      "##rin": 7908,
      "##ah": 7909,
      "##apped": 7910,
      "##yel": 7911,
      "##haps": 7912,
      "##30": 7913,
      "##heim": 7914,
      "##erly": 7915,
      "##tia": 7916,
      "##inate": 7917,
      "##orbital": 7918,
      "##leep": 7919,
      "##ostic": 7920,
      "##acy": 7921,
      "##aced": 7922,
      "##idental": 7923,
      "##aderm": 7924,
      "##trated": 7925,
      "atyp": 7926,
      "stair": 7927,
      "asleep": 7928,
      "prel": 7929,
      "premar": 7930,
      "suit": 7931,
      "suicidal": 7932,
      "##apment": 7933,
      "##apsed": 7934,
      "perhaps": 7935,
      "##tharg": 7936,
      "compressed": 7937,
      "computer": 7938,
      "##ucible": 7939,
      "arise": 7940,
      "diaph": 7941,
      "shown": 7942,
      "##more": 7943,
      "trapez": 7944,
      "scot": 7945,
      "scale": 7946,
      "recording": 7947,
      "##outs": 7948,
      "resulted": 7949,
      "friable": 7950,
      "indig": 7951,
      "agent": 7952,
      "design": 7953,
      "##rick": 7954,
      "december": 7955,
      "##ologous": 7956,
      "##ference": 7957,
      "##ophore": 7958,
      "nonfocal": 7959,
      "crut": 7960,
      "slit": 7961,
      "sliding": 7962,
      "detachment": 7963,
      "hyperplasia": 7964,
      "multifocal": 7965,
      "electrop": 7966,
      "vallec": 7967,
      "inflow": 7968,
      "##rows": 7969,
      "bronchoalveolar": 7970,
      "nasogastric": 7971,
      "simp": 7972,
      "cysts": 7973,
      "palpate": 7974,
      "elic": 7975,
      "dividing": 7976,
      "fullness": 7977,
      "obstructed": 7978,
      "hypok": 7979,
      "extensively": 7980,
      "138": 7981,
      "retrie": 7982,
      "adhesive": 7983,
      "malformation": 7984,
      "suggests": 7985,
      "falls": 7986,
      "crossing": 7987,
      "anteverted": 7988,
      "bacter": 7989,
      "microb": 7990,
      "lymphadenectomy": 7991,
      "cerebro": 7992,
      "width": 7993,
      "meticulously": 7994,
      "autologous": 7995,
      "patchy": 7996,
      "readily": 7997,
      "##load": 7998,
      "##azine": 7999,
      "manipulation": 8000,
      "exudates": 8001,
      "counseled": 8002,
      "bottle": 8003,
      "sweep": 8004,
      "##walter": 8005,
      "entrapment": 8006,
      "accommodation": 8007,
      "relieve": 8008,
      "anesthesiology": 8009,
      "verify": 8010,
      "integrity": 8011,
      "instillation": 8012,
      "phosphate": 8013,
      "fulgurated": 8014,
      "vertebrae": 8015,
      "##rimal": 8016,
      "hemoclips": 8017,
      "coagulopathy": 8018,
      "bookwalter": 8019,
      "orthostatic": 8020,
      "nephrostomy": 8021,
      "##odilator": 8022,
      "nurolon": 8023,
      "paroxysmal": 8024,
      "metabolic": 8025,
      "gleason": 8026,
      "vancomycin": 8027,
      "vulsellum": 8028,
      "atypical": 8029,
      "##ophorectomy": 8030,
      "electrophys": 8031,
      "4th": 8032,
      "bell": 8033,
      "c1": 8034,
      "fung": 8035,
      "nostr": 8036,
      "pons": 8037,
      "punc": 8038,
      "send": 8039,
      "t7": 8040,
      "trough": 8041,
      "##di": 8042,
      "##dl": 8043,
      "##oks": 8044,
      "##by": 8045,
      "##cp": 8046,
      "##cg": 8047,
      "##my": 8048,
      "##vated": 8049,
      "##father": 8050,
      "##wed": 8051,
      "##40": 8052,
      "##inking": 8053,
      "antec": 8054,
      "##isk": 8055,
      "##atable": 8056,
      "##osities": 8057,
      "thrill": 8058,
      "reamer": 8059,
      "##urally": 8060,
      "##ophy": 8061,
      "##opolar": 8062,
      "##ilateral": 8063,
      "patients": 8064,
      "##trically": 8065,
      "style": 8066,
      "ask": 8067,
      "cone": 8068,
      "prepping": 8069,
      "perian": 8070,
      "##chondral": 8071,
      "heroin": 8072,
      "opin": 8073,
      "##akes": 8074,
      "arg": 8075,
      "##endinous": 8076,
      "sci": 8077,
      "scars": 8078,
      "recogn": 8079,
      "subchondral": 8080,
      "##ector": 8081,
      "##ichond": 8082,
      "coraco": 8083,
      "unli": 8084,
      "##ctation": 8085,
      "##ibrill": 8086,
      "energ": 8087,
      "moves": 8088,
      "overweight": 8089,
      "##plastic": 8090,
      "generally": 8091,
      "strictures": 8092,
      "downward": 8093,
      "parotid": 8094,
      "wheel": 8095,
      "collected": 8096,
      "##angement": 8097,
      "ligate": 8098,
      "monopolar": 8099,
      "extreme": 8100,
      "deceleration": 8101,
      "diseased": 8102,
      "tolerance": 8103,
      "nexgen": 8104,
      "##arseness": 8105,
      "patency": 8106,
      "ligamentous": 8107,
      "nonunion": 8108,
      "reflect": 8109,
      "manif": 8110,
      "stenotic": 8111,
      "occup": 8112,
      "fibular": 8113,
      "lima": 8114,
      "defined": 8115,
      "deflux": 8116,
      "2000": 8117,
      "box": 8118,
      "electrocard": 8119,
      "labral": 8120,
      "polys": 8121,
      "solitary": 8122,
      "facil": 8123,
      "appendiceal": 8124,
      "stented": 8125,
      "neurologically": 8126,
      "hematologic": 8127,
      "tunneled": 8128,
      "131": 8129,
      "absence": 8130,
      "structurally": 8131,
      "splenic": 8132,
      "##ontan": 8133,
      "radialis": 8134,
      "speak": 8135,
      "forms": 8136,
      "slee": 8137,
      "percent": 8138,
      "mca": 8139,
      "eversion": 8140,
      "putting": 8141,
      "deformities": 8142,
      "cartilages": 8143,
      "broach": 8144,
      "falling": 8145,
      "materials": 8146,
      "mobility": 8147,
      "accessed": 8148,
      "nervous": 8149,
      "leading": 8150,
      "##ranted": 8151,
      "stimulated": 8152,
      "facets": 8153,
      "lasting": 8154,
      "considered": 8155,
      "##ofol": 8156,
      "periods": 8157,
      "experience": 8158,
      "intermittently": 8159,
      "assistant": 8160,
      "retinacular": 8161,
      "nondominant": 8162,
      "taper": 8163,
      "contoured": 8164,
      "foraminotomies": 8165,
      "elective": 8166,
      "ambulatory": 8167,
      "photos": 8168,
      "prophylactic": 8169,
      "phenom": 8170,
      "globe": 8171,
      "suffering": 8172,
      "##uterol": 8173,
      "propofol": 8174,
      "engage": 8175,
      "##apsular": 8176,
      "abductovalgus": 8177,
      "syncopal": 8178,
      "albuterol": 8179,
      "discussing": 8180,
      "therapeu": 8181,
      "centimeters": 8182,
      "tailor": 8183,
      "weaned": 8184,
      "toxin": 8185,
      "submucosal": 8186,
      "osteochond": 8187,
      "hydroceles": 8188,
      "reevaluation": 8189,
      "telemetry": 8190,
      "dynamic": 8191,
      "tagged": 8192,
      "education": 8193,
      "##methacrylate": 8194,
      "important": 8195,
      "coarctation": 8196,
      "bankart": 8197,
      "bifurcates": 8198,
      "sufficient": 8199,
      "pledgets": 8200,
      "chylous": 8201,
      "paranasal": 8202,
      "conchal": 8203,
      "exacerbation": 8204,
      "##lastoma": 8205,
      "desaturation": 8206,
      "##ioblastoma": 8207,
      "cylinder": 8208,
      "tropon": 8209,
      "regimen": 8210,
      "cauterize": 8211,
      "galea": 8212,
      "premarin": 8213,
      "perianal": 8214,
      "energy": 8215,
      "therapeutic": 8216,
      "2nd": 8217,
      "akin": 8218,
      "bad": 8219,
      "brown": 8220,
      "der": 8221,
      "ebl": 8222,
      "hil": 8223,
      "jau": 8224,
      "lor": 8225,
      "lup": 8226,
      "nick": 8227,
      "pick": 8228,
      "pills": 8229,
      "tyc": 8230,
      "##lottis": 8231,
      "##sa": 8232,
      "##noon": 8233,
      "##rate": 8234,
      "##cl": 8235,
      "##come": 8236,
      "##asone": 8237,
      "##asions": 8238,
      "##alateral": 8239,
      "##align": 8240,
      "##entical": 8241,
      "##arietal": 8242,
      "often": 8243,
      "##icl": 8244,
      "rex": 8245,
      "reform": 8246,
      "reactions": 8247,
      "##adone": 8248,
      "proc": 8249,
      "proposed": 8250,
      "##iability": 8251,
      "exhib": 8252,
      "lear": 8253,
      "letharg": 8254,
      "##ameth": 8255,
      "##ums": 8256,
      "prett": 8257,
      "##emeal": 8258,
      "rightward": 8259,
      "##apy": 8260,
      "comorbid": 8261,
      "span": 8262,
      "cla": 8263,
      "opac": 8264,
      "##formin": 8265,
      "tria": 8266,
      "chance": 8267,
      "##sequ": 8268,
      "##ipaque": 8269,
      "insurance": 8270,
      "afternoon": 8271,
      "##entile": 8272,
      "endol": 8273,
      "transect": 8274,
      "transposition": 8275,
      "transient": 8276,
      "presumed": 8277,
      "impot": 8278,
      "agrees": 8279,
      "identical": 8280,
      "##iorrh": 8281,
      "monitors": 8282,
      "##obar": 8283,
      "metformin": 8284,
      "excise": 8285,
      "quick": 8286,
      "locations": 8287,
      "irritation": 8288,
      "irrigating": 8289,
      "##hery": 8290,
      "contained": 8291,
      "calm": 8292,
      "remote": 8293,
      "slap": 8294,
      "surgically": 8295,
      "coil": 8296,
      "reducing": 8297,
      "herniorrh": 8298,
      "creation": 8299,
      "occip": 8300,
      "dorsi": 8301,
      "##ropia": 8302,
      "##ortical": 8303,
      "2002": 8304,
      "explain": 8305,
      "config": 8306,
      "commands": 8307,
      "contralateral": 8308,
      "satisfied": 8309,
      "highly": 8310,
      "distur": 8311,
      "##cotic": 8312,
      "##placed": 8313,
      "trile": 8314,
      "132": 8315,
      "expressive": 8316,
      "narcotic": 8317,
      "thoracoscopy": 8318,
      "percentile": 8319,
      "performance": 8320,
      "varices": 8321,
      "240": 8322,
      "##genic": 8323,
      "excisional": 8324,
      "diffusely": 8325,
      "erythematous": 8326,
      "bicipital": 8327,
      "worsen": 8328,
      "periphery": 8329,
      "adjust": 8330,
      "snoring": 8331,
      "burden": 8332,
      "methadone": 8333,
      "loops": 8334,
      "hoarseness": 8335,
      "caudad": 8336,
      "staying": 8337,
      "piecemeal": 8338,
      "##arthroplasty": 8339,
      "spondylolisthesis": 8340,
      "largest": 8341,
      "organs": 8342,
      "representing": 8343,
      "contracted": 8344,
      "gutters": 8345,
      "anteromedial": 8346,
      "amplatz": 8347,
      "photophobia": 8348,
      "osteotomies": 8349,
      "adenoidectomy": 8350,
      "nephrectomy": 8351,
      "engaged": 8352,
      "adnexa": 8353,
      "inhalational": 8354,
      "stockinette": 8355,
      "calcaneus": 8356,
      "perforated": 8357,
      "substan": 8358,
      "comprehensive": 8359,
      "artificial": 8360,
      "oncology": 8361,
      "securely": 8362,
      "communicating": 8363,
      "gallstones": 8364,
      "nasolabial": 8365,
      "vitreous": 8366,
      "calvarium": 8367,
      "expectations": 8368,
      "uneventful": 8369,
      "crepitus": 8370,
      "hemiarthroplasty": 8371,
      "visceral": 8372,
      "hyperventilation": 8373,
      "cxr": 8374,
      "benzoin": 8375,
      "interosseous": 8376,
      "offered": 8377,
      "ecchym": 8378,
      "nevus": 8379,
      "artifact": 8380,
      "stairs": 8381,
      "prelim": 8382,
      "suitable": 8383,
      "diaphoresis": 8384,
      "crutches": 8385,
      "hypokalemia": 8386,
      "microbiology": 8387,
      "cerebrovascular": 8388,
      "opinion": 8389,
      "unlikely": 8390,
      "sleeve": 8391,
      "jaund": 8392,
      "tycron": 8393,
      "##amethasone": 8394,
      "pretty": 8395,
      "aro": 8396,
      "amox": 8397,
      "bound": 8398,
      "cis": 8399,
      "costal": 8400,
      "dar": 8401,
      "dog": 8402,
      "eust": 8403,
      "fer": 8404,
      "fed": 8405,
      "friend": 8406,
      "gyn": 8407,
      "house": 8408,
      "lata": 8409,
      "mol": 8410,
      "mast": 8411,
      "mors": 8412,
      "nav": 8413,
      "navicular": 8414,
      "pale": 8415,
      "ros": 8416,
      "tid": 8417,
      "ua": 8418,
      "vf": 8419,
      "valu": 8420,
      "waves": 8421,
      "xiphoid": 8422,
      "##lerating": 8423,
      "##bag": 8424,
      "##born": 8425,
      "##rs": 8426,
      "##gment": 8427,
      "##vocet": 8428,
      "##frequ": 8429,
      "##onj": 8430,
      "##onium": 8431,
      "##enon": 8432,
      "instead": 8433,
      "##atrial": 8434,
      "toto": 8435,
      "tolerating": 8436,
      "##icis": 8437,
      "##ositis": 8438,
      "##ectious": 8439,
      "##elized": 8440,
      "rear": 8441,
      "##uster": 8442,
      "##ionic": 8443,
      "##oler": 8444,
      "##immer": 8445,
      "extern": 8446,
      "play": 8447,
      "##amically": 8448,
      "stuck": 8449,
      "conus": 8450,
      "consequ": 8451,
      "alk": 8452,
      "##apro": 8453,
      "##odone": 8454,
      "applying": 8455,
      "neo": 8456,
      "orbit": 8457,
      "##oustic": 8458,
      "spots": 8459,
      "deterior": 8460,
      "clar": 8461,
      "intoler": 8462,
      "##endoscope": 8463,
      "##alleng": 8464,
      "traver": 8465,
      "trunk": 8466,
      "##izes": 8467,
      "chain": 8468,
      "challeng": 8469,
      "##ressing": 8470,
      "##antages": 8471,
      "acoustic": 8472,
      "cab": 8473,
      "infectious": 8474,
      "corner": 8475,
      "##copic": 8476,
      "histologic": 8477,
      "approached": 8478,
      "##ansion": 8479,
      "##iva": 8480,
      "##ival": 8481,
      "##ivor": 8482,
      "##ivacaine": 8483,
      "examining": 8484,
      "gener": 8485,
      "transposed": 8486,
      "brid": 8487,
      "brachy": 8488,
      "brisk": 8489,
      "103": 8490,
      "##phic": 8491,
      "##othiaz": 8492,
      "parame": 8493,
      "wheeled": 8494,
      "twisted": 8495,
      "##achian": 8496,
      "pulling": 8497,
      "medialis": 8498,
      "meq": 8499,
      "irrigant": 8500,
      "nexium": 8501,
      "cardia": 8502,
      "assure": 8503,
      "##alpable": 8504,
      "cryp": 8505,
      "manually": 8506,
      "detected": 8507,
      "inferoapical": 8508,
      "words": 8509,
      "define": 8510,
      "defibrill": 8511,
      "continuing": 8512,
      "inflatable": 8513,
      "conflu": 8514,
      "dyslipidemia": 8515,
      "calcar": 8516,
      "thorax": 8517,
      "ureteroscope": 8518,
      "quadri": 8519,
      "hypog": 8520,
      "micros": 8521,
      "retroperitone": 8522,
      "serially": 8523,
      "weekly": 8524,
      "expand": 8525,
      "expansion": 8526,
      "avulsion": 8527,
      "structural": 8528,
      "peel": 8529,
      "bulge": 8530,
      "diskectomy": 8531,
      "adhesion": 8532,
      "hemorrhages": 8533,
      "orders": 8534,
      "synovium": 8535,
      "bands": 8536,
      "slowed": 8537,
      "neuroforaminal": 8538,
      "neurogenic": 8539,
      "hardened": 8540,
      "mcivor": 8541,
      "complexes": 8542,
      "straightened": 8543,
      "obviously": 8544,
      "225": 8545,
      "##ways": 8546,
      "lipitor": 8547,
      "elbows": 8548,
      "drive": 8549,
      "diverticular": 8550,
      "leaking": 8551,
      "hydrochlor": 8552,
      "toothache": 8553,
      "agreement": 8554,
      "noncompl": 8555,
      "membranous": 8556,
      "bursitis": 8557,
      "confirmation": 8558,
      "papillary": 8559,
      "personally": 8560,
      "liner": 8561,
      "velocities": 8562,
      "profound": 8563,
      "profund": 8564,
      "##portion": 8565,
      "hydrated": 8566,
      "notice": 8567,
      "funduscopic": 8568,
      "sealed": 8569,
      "grandfather": 8570,
      "communication": 8571,
      "rods": 8572,
      "leaflet": 8573,
      "panendoscope": 8574,
      "albumin": 8575,
      "entrance": 8576,
      "##annulated": 8577,
      "mechanism": 8578,
      "mammography": 8579,
      "burning": 8580,
      "gestational": 8581,
      "electrodes": 8582,
      "varicosities": 8583,
      "pillars": 8584,
      "diverticulum": 8585,
      "calcaneal": 8586,
      "melan": 8587,
      "ocular": 8588,
      "corporal": 8589,
      "radiofrequ": 8590,
      "september": 8591,
      "##ocytosis": 8592,
      "ophthalmology": 8593,
      "decortication": 8594,
      "amniotic": 8595,
      "nocturia": 8596,
      "shoes": 8597,
      "cramping": 8598,
      "synovial": 8599,
      "products": 8600,
      "methylmethacrylate": 8601,
      "nonpalpable": 8602,
      "lysed": 8603,
      "exchange": 8604,
      "naprosyn": 8605,
      "simply": 8606,
      "darvocet": 8607,
      "eustachian": 8608,
      "morselized": 8609,
      "values": 8610,
      "externally": 8611,
      "brachyther": 8612,
      "##othiazide": 8613,
      "retroperitoneum": 8614,
      "hydrochlorothiazide": 8615,
      "radiofrequency": 8616,
      "cane": 8617,
      "diop": 8618,
      "ere": 8619,
      "eld": 8620,
      "fenes": 8621,
      "hes": 8622,
      "hop": 8623,
      "lle": 8624,
      "lie": 8625,
      "nd": 8626,
      "rout": 8627,
      "ridge": 8628,
      "sib": 8629,
      "t4": 8630,
      "xr": 8631,
      "##lab": 8632,
      "##ptal": 8633,
      "##rd": 8634,
      "##mal": 8635,
      "##mill": 8636,
      "##ket": 8637,
      "##yd": 8638,
      "##vast": 8639,
      "##zheim": 8640,
      "##wave": 8641,
      "##60": 8642,
      "ther": 8643,
      "##orp": 8644,
      "##itely": 8645,
      "##ared": 8646,
      "##entesis": 8647,
      "##omal": 8648,
      "##outerine": 8649,
      "reex": 8650,
      "##idone": 8651,
      "##idually": 8652,
      "leks": 8653,
      "disks": 8654,
      "atl": 8655,
      "aside": 8656,
      "##otons": 8657,
      "alzheim": 8658,
      "uses": 8659,
      "##ocked": 8660,
      "perp": 8661,
      "perire": 8662,
      "perior": 8663,
      "dehy": 8664,
      "click": 8665,
      "##throid": 8666,
      "opi": 8667,
      "adult": 8668,
      "arising": 8669,
      "areolar": 8670,
      "recre": 8671,
      "suboccipital": 8672,
      "acet": 8673,
      "intern": 8674,
      "afterwards": 8675,
      "postauricular": 8676,
      "##ensive": 8677,
      "hemocc": 8678,
      "upj": 8679,
      "transl": 8680,
      "follows": 8681,
      "overt": 8682,
      "##athered": 8683,
      "outcome": 8684,
      "##aney": 8685,
      "securing": 8686,
      "strain": 8687,
      "strip": 8688,
      "agents": 8689,
      "##ounced": 8690,
      "ligating": 8691,
      "ligatures": 8692,
      "heads": 8693,
      "##ossal": 8694,
      "supraumbilical": 8695,
      "angles": 8696,
      "glab": 8697,
      "glottic": 8698,
      "criter": 8699,
      "##ascial": 8700,
      "##ruption": 8701,
      "##izations": 8702,
      "passes": 8703,
      "depak": 8704,
      "valves": 8705,
      "##roparesis": 8706,
      "localize": 8707,
      "##untary": 8708,
      "deepen": 8709,
      "cta": 8710,
      "administering": 8711,
      "tether": 8712,
      "tears": 8713,
      "aspirate": 8714,
      "supplying": 8715,
      "gastroparesis": 8716,
      "restor": 8717,
      "adenoids": 8718,
      "adenotons": 8719,
      "achieving": 8720,
      "entirely": 8721,
      "serious": 8722,
      "viewing": 8723,
      "##mann": 8724,
      "potts": 8725,
      "apparatus": 8726,
      "collapsed": 8727,
      "thinks": 8728,
      "synthroid": 8729,
      "basket": 8730,
      "returning": 8731,
      "rectocele": 8732,
      "newly": 8733,
      "newborn": 8734,
      "admits": 8735,
      "bites": 8736,
      "awakening": 8737,
      "bicarb": 8738,
      "suspension": 8739,
      "suspended": 8740,
      "driver": 8741,
      "borders": 8742,
      "gradual": 8743,
      "teres": 8744,
      "icd": 8745,
      "combined": 8746,
      "folded": 8747,
      "hooks": 8748,
      "##operichond": 8749,
      "choled": 8750,
      "adduct": 8751,
      "ventriculostomy": 8752,
      "pronounced": 8753,
      "vitrectomy": 8754,
      "ventilated": 8755,
      "selectively": 8756,
      "epiglottis": 8757,
      "capsuloperiosteal": 8758,
      "dislocations": 8759,
      "##azepam": 8760,
      "indicate": 8761,
      "photograp": 8762,
      "dexamethasone": 8763,
      "tracked": 8764,
      "balance": 8765,
      "strongly": 8766,
      "stainless": 8767,
      "pcp": 8768,
      "amputated": 8769,
      "atherosclerosis": 8770,
      "viscoat": 8771,
      "vibration": 8772,
      "markings": 8773,
      "individually": 8774,
      "warranted": 8775,
      "zyg": 8776,
      "group": 8777,
      "extends": 8778,
      "leukocytosis": 8779,
      "shell": 8780,
      "parenchymal": 8781,
      "splinted": 8782,
      "responded": 8783,
      "sexually": 8784,
      "independent": 8785,
      "becomes": 8786,
      "myelopathy": 8787,
      "weighs": 8788,
      "shockwave": 8789,
      "hemangioma": 8790,
      "tegaderm": 8791,
      "bacterial": 8792,
      "vesicouterine": 8793,
      "sessile": 8794,
      "myringotomy": 8795,
      "supportive": 8796,
      "cystourethroscopy": 8797,
      "interrogation": 8798,
      "treadmill": 8799,
      "elicited": 8800,
      "hilum": 8801,
      "comorbidities": 8802,
      "herniorrhaphy": 8803,
      "occiput": 8804,
      "configuration": 8805,
      "preliminary": 8806,
      "cistern": 8807,
      "melanoma": 8808,
      "elderly": 8809,
      "sibling": 8810,
      "##vastatin": 8811,
      "leksell": 8812,
      "alzheimer": 8813,
      "perirectal": 8814,
      "dehydr": 8815,
      "hemoccult": 8816,
      "criteria": 8817,
      "1st": 8818,
      "boug": 8819,
      "cro": 8820,
      "cet": 8821,
      "cir": 8822,
      "gif": 8823,
      "lort": 8824,
      "olig": 8825,
      "pes": 8826,
      "rough": 8827,
      "sat": 8828,
      "sips": 8829,
      "tas": 8830,
      "tall": 8831,
      "ware": 8832,
      "wake": 8833,
      "za": 8834,
      "##iance": 8835,
      "##ners": 8836,
      "##rade": 8837,
      "##ming": 8838,
      "##gia": 8839,
      "##ken": 8840,
      "##vc": 8841,
      "##wood": 8842,
      "##asure": 8843,
      "##enance": 8844,
      "##inter": 8845,
      "##itz": 8846,
      "##arinal": 8847,
      "##level": 8848,
      "##osu": 8849,
      "##osigmoid": 8850,
      "##ana": 8851,
      "repl": 8852,
      "reaming": 8853,
      "##ulas": 8854,
      "##ulating": 8855,
      "promp": 8856,
      "displ": 8857,
      "##ftc": 8858,
      "stoma": 8859,
      "conversion": 8860,
      "beam": 8861,
      "always": 8862,
      "##stable": 8863,
      "places": 8864,
      "##oche": 8865,
      "##theless": 8866,
      "wearing": 8867,
      "clim": 8868,
      "##thy": 8869,
[...]
